00000000 
ff832cd7 
000cc6f7 
fff948de 
ffd47df9 
ff945855 
fffa7ebd 
fff6022a 
00af330a 
ffeddea6 
001c8a95 
fff01070 
00255325 
fff71648 
ffa1a59c 
ffc6de2f 
ffecf5ae 
fff21260 
ffeb4690 
ff8d475b 
fff49d88 
ff2f4585 
ffe3c331 
00184251 
ff749fc8 
0002f593 
ffcff2c3 
000a5e5a 
ffdbeac8 
0002cf7c 
00071605 
001eaafb 
00046a68 
0017e409 
003503ff 
fff119b9 
00013c8b 
002daa10 
ffd83822 
0003e9ab 
002ebc0a 
fffeafa2 
003d6855 
00267f60 
ffc56786 
ffff86a7 
ffdd5b8a 
ffe90ac5 
0002abd8 
0024e72a 
fffb62b2 
fff24c4c 
001c4e6b 
ffecb9bd 
ff72553d 
ff55486b 
ffd5b9fa 
0001279e 
0017b47c 
002bded4 
ff697eec 
ff4c71cd 
ff6cc281 
fff449e2 
ff94b5c1 
ffd2136e 
ffdaf18c 
ffe39228 
ff8db4d2 
ff86e615 
ffaa6c54 
ffab1714 
ffcf1a04 
ff30bf30 
0010db58 
ffe55664 
ffaee05d 
00103a19 
0005a032 
000c1450 
ffa12dcb 
fffcb1ee 
ffc5f290 
001490f2 
ff801878 
0007454c 
0002db09 
0010db3d 
00174422 
fff195f1 
001d2040 
00182074 
ffe51232 
ffb876d1 
002b56d7 
ffe1e821 
ffe9e477 
00144596 
ffed711d 
003e30b8 
fffbcd3b 
00381d96 
ffd76d9b 
002adc32 
00022c05 
fff43c41 
ff987276 
ffd74cf5 
ff7c6549 
fff86f3f 
000cb653 
002a4333 
ff98f6ac 
000acaeb 
ffe9d5ae 
ff8612e8 
000a821a 
0001b487 
000f2078 
fff0ff99 
0003f361 
00a06d21 
fff7f945 
ffeb327b 
00c27eff 
fff893b5 
ffeb7af1 
000f1753 
ffdc88fb 
0022e3c2 
00cc4460 
009ccb1a 
000b65cc 
00085b61 
ffed5e0c 
0008ec6b 
fffc3e95 
001bcb30 
001a29fd 
003f1933 
00152bd8 
00085e8c 
00243dee 
0005e2f5 
0012caa6 
0011defd 
00025637 
fff49916 
ffd924c1 
0000d1fb 
0020bc80 
fffae4c2 
fffd05d2 
ffc84dfa 
fffa8d93 
ffeb4c13 
000fd68f 
000c60c0 
005bc5d8 
00839e30 
0059a9f4 
004a2318 
0070d9eb 
004c4c51 
00631984 
00963965 
008e817b 
008f7e5c 
007e99c4 
005dd207 
00027016 
000c3e5b 
ffb27b5a 
00046e19 
ffe465cf 
00121b2a 
ffee1b5d 
ffd80b59 
01416f98 
0001c914 
00129c43 
00030937 
000e25ae 
fffccc9f 
000dfbbc 
ff8a55a5 
ffff704d 
000b9227 
00111558 
ffed521e 
00190614 
000036c4 
0028d2b6 
00027400 
ffddc2de 
0003ea8c 
000cde48 
0030c485 
000c79e3 
001b9ade 
000ce30c 
00019189 
fffee43b 
00076be8 
fff1ddf6 
000c0554 
001e9a3a 
0003b10b 
00162f7a 
000d3cbe 
fff4b2e0 
fffa5ea3 
0009f5bb 
ffed3885 
00260753 
ffeed21c 
000fdf13 
000abe5a 
0002a203 
ffdb6433 
000754bb 
002db156 
fff3923d 
fff1a054 
00027695 
fffde70c 
fff1d168 
fff3b4c3 
fff7f69f 
00097623 
fffc8db2 
0006e76e 
0004e170 
fffae299 
0003287a 
ffe1cb63 
0008ba85 
000c3e86 
001aa323 
fff4c5c5 
ffdf02ff 
00076443 
ffe5bc42 
fff71139 
00074aa4 
00084b88 
0006616b 
0009bb2d 
fff7c454 
0022d227 
0002d726 
0006bf57 
fff97016 
ffdd5a52 
000b1b92 
00118a60 
00000000 
