00000000 
00e4ebd1 
0003e360 
00173fcc 
ffd55640 
003ef680 
fff4ce5b 
000beafb 
ff33b2a7 
ffeec333 
000fc75d 
ffe6fcfa 
fffdbef2 
000323c2 
ffe3c5b7 
ffd5294b 
ffda0603 
fffa23ef 
ffbe5d7a 
ff6f233f 
0012a343 
ffc6da67 
001443ef 
fff3be15 
ff199766 
00166951 
001a5f93 
000c9674 
ff2ab0fb 
ffe24d6e 
fff7fa85 
00049d07 
0026b960 
fff0027e 
ffef4eac 
001f0ff4 
fffd6aec 
fffff95b 
ffea3d51 
00257ad3 
000018bb 
003484b4 
011b9cb2 
0001d78a 
01367b3a 
fffd5555 
ffff5870 
0004ec97 
00dd12f8 
0005c256 
0039e1de 
001efc2e 
000a41cf 
fff5a364 
000517c6 
ffe8b093 
ffed8582 
0022dfde 
00057ae7 
001f27b5 
ff307af1 
fedbc446 
ff708311 
000eca37 
fe82169a 
ffc52080 
ff6e266d 
ffb1b92b 
00149a82 
00231e4c 
0039f939 
ff8af6fc 
000ca814 
ffc8a1d5 
00113515 
fff5f679 
0021ff76 
fff31f5a 
ffeaff8e 
001b0450 
ffffeaf5 
ffe49c2f 
ff6af35b 
ff2e952b 
00047e69 
001c198b 
001aee90 
0021a6ee 
0011ea4f 
0009a401 
000d2ec7 
fff37ab5 
0001fb66 
00052fbe 
fff389a5 
fff4a258 
ffee773f 
fffc965c 
000c2e0b 
fffa4274 
0001c857 
000aa32b 
ffee2cf5 
fff59a09 
00242b0c 
ffeb7d54 
fed5e2c8 
00199a36 
ff2cfcc0 
fff4ee19 
000692c5 
ffecfaea 
fed29da8 
00197f68 
fffde272 
ff1aab2c 
00128e83 
000e65ec 
0016ac05 
ffef33dd 
0023390e 
fe1dbb30 
fff74555 
000d3646 
fe93e120 
001b4481 
fffb69d2 
ffeee099 
fffe2807 
ffee5e85 
fddbc99c 
fe1a06b2 
0017beab 
000dd7c5 
00229b2f 
ffec06a7 
000de7e0 
000c88cf 
ffff39c3 
fff1e3c3 
0014ca6f 
ffecd747 
000a72e6 
fff5cb08 
00062fdf 
0005cf4c 
ffdce4e8 
000cd335 
ffbc051a 
ffdf136f 
000d05e5 
000948eb 
ffff2a44 
fff50991 
000053f9 
001d9728 
ffe57bac 
000b7f39 
012fbd3e 
015cd334 
00fd6e6d 
01507a4c 
015a9b18 
00fd7faa 
014726e6 
018e7838 
0173a6c0 
0154bd28 
014756e4 
0143c306 
001a22bb 
fffc5968 
fff58a8f 
00126e90 
fff3be82 
0005c693 
0000b636 
000c0142 
ff31eb2d 
000346f5 
0009759b 
00039ed2 
fff78299 
000982ff 
001e6739 
ffef8b53 
ffe3dba4 
ffe71e97 
0006df67 
fffcda9b 
00086afb 
002a1bed 
000ebc22 
0012a47c 
00006e1d 
0038f38e 
00199f69 
00027344 
fff855cd 
ffd8657d 
fffd6ea4 
fffe93dd 
000beb68 
ffd8a5cd 
fff62e3a 
00092d03 
001976fc 
fffacf66 
0005c4ca 
00156d84 
fffe6c35 
00124048 
0004b1be 
0023b02d 
00058a5a 
ffec1587 
ffdf8cd9 
0015b975 
000c35f9 
ffb697b2 
000d74c1 
ffe86eeb 
00085150 
000d466d 
ffe802b4 
000840fe 
ffdc61e5 
00175468 
00144034 
fff94867 
fff728e4 
00086390 
000f26da 
ffed3239 
ffed99d8 
001bac2f 
fffeb0c5 
00110f54 
000b4bf4 
ffe6f90e 
fffd39d6 
fffae791 
fff35ccb 
0010e597 
00236d88 
ffe67e53 
ffce8c91 
000d36c3 
001e1648 
00187079 
001f5d54 
0003f815 
ffd04144 
ffccfc61 
ffff72f1 
ffe653ad 
00000000 
