00000000 
fed391a8 
fff46b51 
000a409b 
0018c400 
fef19aea 
0000360d 
000cc8a7 
fef9a210 
0025850e 
ffd346eb 
0010aa1d 
0003f576 
002ad596 
fece8a76 
fee872aa 
fffe436c 
000e81c7 
ff238da5 
ff7a405c 
0024a5d8 
006b51c5 
fff01042 
0005a5a9 
00784129 
00077fb7 
000a6795 
002134c3 
00a79ce2 
0005bca1 
fff09f10 
000a9408 
ffec82bb 
00096bf6 
00063682 
00179736 
00060f07 
000e6291 
002999b9 
fff72eab 
001a5db1 
ffe7a38f 
ff5f72d2 
fffa6d83 
ff86a95e 
001236e9 
0004a9c0 
0002a730 
ffa0e1a6 
ffecd4ea 
0001e334 
fffacf8b 
0014f68d 
0021a91b 
fecbbaaa 
feba3f36 
000e3773 
000cd70a 
00042a09 
fff661f2 
01891656 
012f4d4a 
0140b8c8 
013e064e 
003e2383 
00673750 
008df1cf 
003b592a 
00e24772 
00599b71 
009e3e30 
00bcfd97 
005ad5f1 
ffea287c 
0085b7e2 
00880528 
00eb1510 
00117404 
001583b4 
001e7001 
ff8510e0 
ffe5c4a9 
ff50b88e 
ffcbf2fd 
ff3aef6c 
00205749 
000187f7 
fff8ce3b 
ffeb0b59 
ffeb07f0 
ffe380b4 
000848bc 
000d698f 
00197b4e 
00168c04 
ffead710 
fffb5fbd 
fff91698 
00353214 
00335ea2 
00245f77 
000e5f71 
fff8fc9f 
0023693b 
fff4bcc2 
000f7b1d 
ff3954b4 
0003c913 
ff377b29 
fff86b75 
0020f366 
001245cf 
ff5552f1 
002d7947 
fffc5e02 
ff2a922d 
00147f47 
fff708ef 
00075d88 
0018734d 
ffe6c656 
ffc4ebbb 
0002780c 
0028cd32 
fffddcbf 
000e6a6e 
fffdf36f 
000b222e 
000e7618 
fff27bc3 
fffcc901 
ffdb2e85 
000e4d91 
0009bb72 
00112aaa 
0014bb99 
000b10db 
00253c74 
ffeed388 
ffe14c2c 
00217df1 
0029f335 
ffed1a5e 
fff1de9a 
000cbad7 
0020dd03 
00124c0e 
00152bfa 
000d5eab 
0008a784 
002543c8 
001891d3 
00199c25 
001d579b 
fff231a3 
00329498 
fffc0569 
002778c7 
ffad17a1 
ffd5515b 
ffc601f9 
ffbe8798 
ffd098c0 
fff41de3 
ffbd197d 
ffabb278 
ffb207e1 
ffa7557f 
ffca4c31 
ff9eb1bf 
fff8d7ea 
00313bb5 
001414e9 
ffee48e3 
fff78c97 
ffec5703 
ffdfc730 
fff7d5ae 
007c2d10 
0013ef59 
00197667 
fec9fb78 
002a017e 
ffea95b9 
fff0de21 
ffeb749c 
002b400f 
000745ea 
ffed3475 
00299607 
00090612 
00197874 
00244eb4 
fff6f9bd 
fffe9df7 
ffe095e0 
0005b722 
fffc0074 
000b1bbe 
00190852 
000721bb 
0021013d 
001c3b5b 
fffe9ba0 
00000aab 
0000efd6 
002019cd 
002564eb 
0013e9c8 
fff50d98 
00015114 
ffed64e0 
fffc08e6 
ffea1726 
0018318c 
002a98e9 
fffe5c18 
0017abf3 
00166dba 
001bf70f 
0031d169 
ffe36712 
003989c4 
0008c3a3 
000dc440 
00239133 
fff0aa8a 
00036129 
0008d736 
002205dc 
fff56999 
0005c18b 
000f378a 
0000428a 
ffe95636 
00042774 
00106313 
002a06a3 
ffee2120 
0003a488 
00389b9e 
0005e470 
000a3761 
fff463ef 
fff60236 
ffeea9fb 
0031a862 
ffdf4893 
00005b9c 
ffeaf66d 
ffe67a88 
fff55c99 
ffe5f54e 
ffde60c7 
fff8111f 
0014114b 
00000000 
