00000000 
00169e5a 
000cb4e3 
00282759 
00234a1c 
00519f5b 
00307135 
000cda20 
ffb1a448 
000ed32a 
000e94a5 
0012c526 
002f9b74 
00004206 
ffba80a4 
00403d39 
fff3ee1c 
0019dea5 
008b9814 
ff499030 
0016c216 
00540f4e 
001f8349 
000b2829 
0000717c 
0014d439 
000d22d4 
00159c80 
ffc10d0e 
ffe89094 
00161c82 
000ad4b3 
000e3a9b 
0010bd83 
fff8c9d7 
00032693 
002828db 
001bc3da 
0031d29f 
002325df 
00206d71 
002d1d54 
00758b6b 
002e69df 
ff9bbf0f 
0041db0c 
fffcc751 
001d8392 
007f3ff3 
002765f5 
0012b61e 
000659f6 
001543d8 
003f1931 
0041fed1 
004514d6 
fff96383 
00413823 
00101034 
0003f2c1 
ffba1849 
002dc8d7 
ffcdf3cf 
ff7da6df 
00bca46a 
001134db 
002f229b 
00262231 
0076d6a6 
003a1d1f 
000b4289 
fff5ae0d 
0020acde 
008fe0ff 
0018a8a4 
ffd42d44 
000faa25 
fff796f9 
000f989a 
fffadce6 
ffea3380 
002d8c61 
ffefcdb4 
ffcc2030 
00538351 
00136b8b 
001c65fc 
fff720bc 
00095046 
0013a10a 
fff8049c 
fffe4842 
fffe728c 
fff02a4f 
00267a19 
ffec3048 
fffe7bb0 
000c34a7 
001a6d4f 
fff08ee3 
ffee085c 
0014122f 
000415d9 
00218ee3 
ffffbd51 
000ce7be 
fee07ea6 
001a3b1f 
ff14d4c7 
0035e371 
00239b91 
00009b4d 
ff4ddedd 
0000f1ef 
0015c090 
ff40b95b 
0036b8f3 
000b083c 
002fdd19 
00234809 
000188e4 
005a2c24 
00043eb3 
00048030 
003ff277 
0019ac31 
001b573d 
002f0033 
00156dae 
001a3397 
fff1533a 
001b22ac 
0004a835 
00027829 
ffeab976 
0017234a 
fff0571d 
00273629 
00084eb7 
0024c0ef 
fff5b9e1 
002e966c 
00192d45 
0020137e 
0012e773 
000e6a74 
0040e9e5 
0022653d 
00297859 
002cdc26 
fff12655 
0018c478 
fff42453 
ffe43d26 
001e3148 
0011ea97 
003665ca 
002bdb45 
fedcf166 
feca27dc 
fe91a544 
fecff3aa 
febc0d3e 
fead420c 
fee6d856 
ff1d3093 
ff0aeb47 
feca353a 
fed157d8 
febff4a2 
002b30be 
ffb9f1dc 
000edb66 
fffc417f 
00182817 
000099d5 
0005e3a2 
ffe2daf7 
00040556 
00167450 
ffed5814 
ffc5141a 
0022adb5 
00252c4a 
00395eea 
00b3ce4f 
fff79891 
002f710a 
fff7a82c 
fff20ab6 
0018e354 
001e4079 
001b0e2c 
0042ad11 
00008f7b 
002310c6 
00205806 
fff689ce 
ffe53e63 
fff1b89f 
0020cfac 
ffec93f9 
00109431 
00214990 
0008e9c0 
fff5f0bb 
ffe77d1d 
001151a8 
ffec5170 
002aac6a 
002067a5 
002b766c 
fff23ba4 
00172878 
0012641d 
003b8280 
00328379 
003941a0 
fffad346 
fffde70e 
fff83b87 
002131b1 
000ad6ef 
00096b56 
fff1f05a 
fffe75a1 
000cf45c 
0023e8ee 
000c54cb 
003a5f4f 
002f911a 
fff1cc74 
0025be38 
002e474f 
fff457a2 
00236f25 
004ebc39 
0000d769 
001b9f32 
002c9e5b 
00073213 
00153d45 
002dc189 
fff22329 
00352b95 
001eb470 
0004d9c1 
0010dea1 
0045bbcf 
000b93fb 
000a0659 
00020ddf 
00067c8d 
002c29bb 
0036426e 
fffc3bc5 
00000000 
