00000000 
00015527 
0029f338 
00027208 
fff12252 
01a6e932 
ffedf345 
ffcaad30 
019bd0ea 
00063ddb 
fff309a4 
000d7261 
0008b971 
ffde653c 
01a5b7c2 
01449d94 
ffd87398 
00159904 
010f2610 
02188c90 
0012bbfb 
ff78092b 
00271c4a 
ffe314fc 
ff0e9e6b 
00116dd8 
fffa4970 
001f4205 
fff1f329 
00020c62 
ffd4c3cc 
000f0d57 
ffe118ad 
00228bbf 
00059861 
ffda9b27 
00042de9 
ffeaf54d 
000f1787 
000f0930 
fff0db56 
000c14ad 
00329d41 
fffd1b66 
ff92e243 
00184618 
0016b7fe 
00084ed4 
0017d4a5 
ffec1c08 
ffb4910a 
fffdf393 
00033eba 
00291218 
000fe35b 
ffe044e7 
000114a5 
002d3111 
001e6908 
ffd29a84 
00f290df 
00c46476 
00876dd9 
00155d58 
ff8ced66 
ff98bc99 
ffff59ef 
ffa4747b 
ff56111e 
ffb21a4e 
ff9f18f5 
ff467a46 
ffc8e925 
ff715520 
fffa0727 
ff850e11 
ff40ae37 
fff10950 
ffffd9ad 
0002c4c9 
002dcd0c 
0010f105 
00c104c3 
0113ece6 
00a1e807 
0007fc71 
000140e9 
fffb3b29 
00044364 
fff7da63 
fff92e35 
fff65e8a 
ffd40310 
fff84bec 
ffe910a3 
000fd13f 
fff5c3d9 
ffe5fb1c 
fffbd5fe 
0005f5e1 
ffde4faa 
ffdda693 
fffb8095 
fffe9e9f 
ffccef38 
0017a669 
ff39eeef 
000443f4 
ff7c7ebf 
0008f9fe 
000f2b4c 
fff29891 
ff6309ba 
ffeb2d44 
ffed3e07 
ff69973d 
002917b9 
ffd393c2 
0011062b 
ffe65292 
fff6e5dc 
feee699a 
ffdad11f 
fff56290 
ff177477 
ffebc153 
00289a71 
000bc54e 
ffe9966d 
fff38064 
fe90679e 
fedfdde8 
ffec21b9 
000ab06a 
0004ce46 
001abe3a 
000ac762 
000dcfab 
000141ff 
001de2c4 
001b9175 
fffa46f4 
ffe2f131 
ffe7dfeb 
ffd3ead5 
ffe58f69 
fff9e74b 
fffc094e 
0012b219 
ffee1280 
fffd56c8 
00314c9e 
0001c23d 
ffe52fef 
000b0fe1 
fff8f9f6 
00024305 
000aecf6 
ffe8a319 
000efd8d 
ffc07c83 
0002c923 
000c0ba3 
ffbbb4e8 
ffefa2d4 
00546055 
00466c84 
001ea5af 
00267c9d 
fff98bbf 
00061c1c 
ffdb1779 
fffec67b 
00056c47 
002f11f7 
fff1d0a0 
00278ae0 
fff4ceaa 
0046464d 
00153705 
fffb9420 
ff877c8b 
ffeb0ba9 
ffec055a 
0005d9c2 
fef9e7fe 
0000726f 
0028d392 
ffea69a8 
ffe7b755 
fff5ebf7 
fff19253 
00029c86 
000aaac5 
ffeec811 
00037c96 
ffecd9da 
ffdc81a3 
00015265 
ffe3cc51 
000be57e 
fff6ebb3 
fff4ed8f 
00040e3b 
fff7162f 
0000ed9a 
001d2bc5 
0026d49a 
ffecbfdd 
00151df9 
000b9e05 
00047597 
ffee7e8e 
0002f83a 
00007d26 
fff91a82 
00040c8e 
fffa37ae 
000cbb07 
000efa5a 
00043664 
000e1621 
000d5865 
000c809a 
002c871e 
00074216 
003ad591 
000795ca 
001dd8fd 
ffefa474 
ffe2a5dc 
000e6eba 
000936d1 
ffdeb054 
0006021d 
0013ba42 
000c8839 
fff64db5 
fffaae98 
ffecc3e1 
000352b0 
0020680d 
0023f4c7 
0020443f 
0012ef83 
0004080f 
0009755a 
ffccd8d0 
0002f1f8 
fffd8bb9 
ffc52b44 
001ed683 
002fc204 
000c066c 
fff96912 
ffe50618 
00000000 
