00000000 
fef413fc 
ffffcf0d 
fffe880c 
fff1e9b2 
ffc01bf0 
000ddac2 
fffc6a82 
ff11f1b0 
ffcc9fbd 
fff67210 
001e8f3f 
000df6ed 
0012f683 
ff869f78 
ff469190 
ffe229bc 
0016830e 
fecab23e 
ff4843c0 
000e73c4 
001279ed 
fffa348b 
fffa79f3 
ff8b5b0e 
001f4633 
fffbfa78 
0011f86e 
ff4a3ad2 
00062b9f 
002057c1 
fff914ef 
ffe3c7ae 
001a8cca 
fffd38f7 
0003a07e 
00026bea 
fff2f83b 
ffcfa20e 
00044d69 
fffbd60e 
002c6550 
fec8df20 
003849c4 
fde63aa4 
00033209 
ffec7f78 
002151d9 
fed66fbe 
00435e29 
ffe4cfd5 
fff9baf6 
0009b971 
fff6e3d5 
01b2b432 
019a7d00 
0001696c 
fffd6e28 
000c7944 
00022d9d 
fff8745c 
fff26700 
ffdd96fd 
001c6e51 
0029d2e1 
ffd7514f 
ffd1fa52 
ffb74603 
0015ce00 
0006a701 
00300699 
ffb8d84b 
0019ef2d 
ffc54b8c 
ff91d317 
00200b0d 
ffcfb8bb 
000748a3 
0006ed58 
001b87b8 
ff4e8576 
0010ba99 
ff7afec1 
ffd30e9b 
00525514 
0008502e 
0002ac0d 
001525c6 
ffe3c160 
000016e8 
fff1af81 
fff60524 
fff2df3f 
fffa41c1 
0005a796 
0011e720 
fffbf073 
ffff5e84 
fff61d13 
ffd38191 
0006fb32 
00104112 
0018bdd3 
002e4e54 
fff1c49b 
0016ab8a 
fff6be48 
000ef4bd 
fff7618f 
00095637 
000bc6c6 
fffee58a 
ffe65f76 
0019ad09 
0006b4a5 
ffb708b5 
0025fb3b 
fffda813 
fff896d0 
000131a3 
00045e11 
00823cbe 
fff9db3d 
0017a3e4 
006ff7fc 
ffdb7de6 
fffdb945 
002a117a 
00092a0c 
001be7f3 
0051cab2 
006d3c91 
0006ffa1 
fff9ff95 
ffed29f4 
0000e44c 
001e67c4 
00420a8f 
ffe9d581 
000a7a77 
00139772 
000816ff 
0017144d 
000ef10d 
001ca0b7 
fffa683c 
fff591f0 
001f9062 
ffcdbd6a 
002fc289 
fff3fc7a 
fff988b6 
0001d994 
ffd74215 
000e0207 
00066b5f 
0026a6ea 
0000737f 
00362055 
00127402 
0028493f 
000d8899 
0028a979 
001dd967 
0009a883 
000ea7a1 
ffea6ed0 
001ef49a 
00341041 
00299e6f 
002ffbb3 
00a80a7a 
00050338 
001dd972 
0005b464 
fffed0b6 
00034d3c 
002c4530 
00deea73 
0011923f 
000bfdfe 
ff52a69e 
ffdf4e4b 
ffcb8296 
000d20ae 
ffe38023 
00166cad 
fff6ab0c 
0029bcba 
000bfb1d 
000f1117 
ffe520dd 
00121e79 
ffd33067 
0017e7ad 
001beef7 
fffdee87 
00033f71 
0016b348 
000525c1 
fff835cc 
fffc0246 
001561cc 
001a4571 
00007fa3 
003e0b86 
fffe553d 
0019a8aa 
ffe7c3e9 
0024cba9 
00183469 
0007a749 
ffeda7c3 
fff1d17e 
ffdf34e8 
ffe97990 
fffe7479 
00193016 
00201b44 
003b7502 
000dea9a 
001fde42 
fff2a10c 
00198fec 
002d674a 
00127ca7 
ffe1bb37 
fffa7471 
ffec55a6 
ffe1d015 
fff00afd 
fffb2a86 
000786b2 
003a8f05 
002f8d58 
002237f0 
fffba68c 
ffef80c1 
ffc5114f 
00327969 
fffb1473 
fff93702 
0031ba7c 
0009addf 
00265123 
fffc18e0 
fff4c4d8 
0028b739 
ffdf4835 
0012bda6 
fff9395f 
0018109b 
fff65470 
00274e6f 
ffec148c 
fff9cd4f 
00000000 
