00000000 
007ec384 
001134e7 
ffdc5846 
ffe87b79 
ff693b65 
0009d87e 
002c326d 
ff0cdc8f 
00055b8c 
000b5d68 
fff4ffcd 
fff9c87d 
001b4925 
fef22ed0 
fefdeac0 
ffea8edd 
000f1949 
ffee8841 
ffacfbb3 
001651fb 
fef03c88 
ffe3df1e 
00475305 
00179050 
fff87913 
0013c8b1 
fff22f4b 
ffb82c48 
0016f1e1 
001d9252 
001a8316 
00120747 
fffaf9c3 
fff0a9cf 
00097ab7 
0018578b 
001562f8 
00038973 
ffe05e08 
fffe816c 
0011c0a7 
0170e6bc 
0015b12a 
0040d0ee 
00131a01 
ffef4f6c 
002e0e05 
005eaf4b 
00241eb1 
00269f41 
fff829a4 
004bc961 
0003035a 
ff648c1f 
ff67ea85 
0037570e 
fff1902e 
ffec81e3 
ffd29322 
00114b5f 
002bf0d4 
fff8b3e4 
000a4470 
0005de6f 
ff6a62bd 
00003427 
ff8fd9eb 
ffa9b861 
ff842628 
ffa4f8c1 
ffcb2f83 
ffa9f05f 
ffd6ba13 
fffe03f9 
ffad892e 
ffb9b898 
ffd3ef42 
fffa3346 
003ae704 
ffa56924 
002a377a 
ffec7a21 
ffea2378 
ffe82469 
0003045e 
ffe693be 
ffffb8e8 
fff6079b 
ffdcefee 
00212cf3 
000999a3 
00105a05 
001e93fc 
0000faf5 
00020ae8 
ffd87d89 
ffcedaec 
0002bddf 
ffea7ed8 
00272cf0 
fffb3770 
0012cd9e 
ffe29f92 
0010c068 
fffc8805 
fe7f35e8 
ffdb3ecc 
fecc8268 
fff35f7b 
fff06834 
00166880 
fea594f2 
ffebad40 
003e523d 
fe49c204 
000ea58c 
0014a329 
ffff56e2 
000c8676 
0022d4f5 
0034710e 
0033f856 
0014f00c 
ffbae87e 
001856ec 
0003adaa 
002b9f29 
001a557f 
fff3052c 
ffdccfda 
ffacab18 
fff83ef4 
001191b9 
ffecd9c0 
0026f6e9 
000e3f52 
00046cd9 
fffe7713 
002933eb 
00091753 
001dbdda 
ffff072c 
fff2df29 
fff561c5 
ffecfb15 
001a80e9 
0009f295 
001d1d30 
0015ad33 
fff0b016 
fffe1818 
ffe58f74 
0014e5f4 
00245dc3 
ffeb2fdb 
00079c71 
ffee1151 
00824b30 
008e6f9a 
0089027d 
00a5362a 
008d5dd3 
007735dc 
00a88442 
00768391 
007b6199 
0079bcbf 
007e6631 
00a2c7e5 
00187bde 
00dd0e8e 
00027c58 
00094111 
ffe58f7e 
fff59878 
ffef691f 
0013c9b4 
0117a166 
002abd0a 
ffdf99f0 
ff943270 
00190d50 
00124c24 
002d4f90 
0050e73b 
fff852f7 
00052fe1 
00239495 
000c3210 
fffc03d2 
fff1985e 
ffdb7dff 
0026c264 
001a95b8 
0024389d 
0007bf05 
00090bad 
ffecdc4a 
fffee00b 
ffe34f14 
ffef2568 
00066b7e 
001f99cf 
00182239 
fffaefc1 
000031ef 
fffe6754 
fff01cea 
0042d266 
000a524b 
fff9c845 
0031a911 
fffec64e 
fff868e1 
000ab0e2 
000f89c3 
001ad254 
000146ca 
ffff035a 
0005d34e 
fff85d19 
ffef8bab 
fffbdcda 
fffc37e2 
fffbcc7f 
00248b6f 
00130adc 
fff60a43 
0013c77b 
0001d45e 
ffff5173 
00192eb7 
0012fe01 
0020808a 
fff0f0e2 
ffeb26a9 
fff32684 
ffed4f19 
fff6dc97 
00170fa7 
0000bd2f 
fffac616 
ffed2d97 
fffd474b 
fff5be26 
0007b1f2 
ffed2660 
ffe497b2 
000bce9c 
fff9798e 
001eaec5 
0005e32d 
fff96c67 
0031998c 
001690c2 
00000000 
