00000000 
00c870a9 
0000e30a 
003cba12 
fff27605 
002a85f7 
fff1f10c 
001b8edd 
0014c591 
00457f4e 
0007af8d 
00326fd9 
00324e4c 
0015f960 
007dcd7f 
ff11c349 
001c7a44 
00311fe5 
0032bbf0 
000833bb 
00104977 
ff0f9e32 
002e5d16 
00034125 
ffdecbaa 
002542b9 
00237a3e 
001024f5 
ffa821e0 
fffcce4a 
0041f424 
00090f4a 
fffb49bb 
fffef97c 
001473e8 
0002e15f 
00342e44 
000ee007 
000e9eab 
fff415ae 
000a2f39 
fffe6d8d 
00148684 
0006ed41 
00802e44 
002074e5 
fffecf9c 
ffdbe38e 
005eb6d5 
001816ce 
0041eb88 
fff56a8e 
0014ae58 
0007209c 
0060a1d3 
00784950 
fff6c70d 
00263075 
fff69601 
00171cfe 
0008ab77 
0056e223 
ffd047d2 
ffc7ffc1 
004759f2 
ff612acb 
ffa20942 
ff4a39a6 
ff358ca7 
ff5de676 
ffa869ae 
ff9997b8 
ff3e532f 
ff706a9a 
ff0bcb70 
ff672791 
ffa1f581 
00096076 
ffef4cf7 
0007a564 
ffd132c1 
0031d12f 
ff496179 
ffe96df0 
00510ef7 
002079f3 
001d558f 
000e164d 
001735e5 
0026f0d7 
002bdae2 
003476c2 
000141a3 
fff61ff2 
000274b4 
0011271c 
00210b0a 
000cb67c 
004023d8 
00206ed6 
fff897a6 
000e3297 
001a7b23 
0042b2d6 
002db66b 
fff587bd 
ff02210e 
0009bffe 
ff06ff36 
fffceb31 
002e6dd5 
ffe707f2 
febd0ade 
0004fde6 
001d6ca0 
ff5aa000 
00141280 
ffe5fbea 
00318c27 
00074418 
0010553f 
015eadca 
00226093 
001bdb85 
012f254c 
000cff2e 
00141647 
0027ae21 
000a88a3 
001a0820 
00f23bc5 
014b1944 
0006f627 
003403b9 
001a6218 
001d5c1a 
fffa41d0 
fff82f66 
0010ae55 
0016817a 
000630d7 
00051f49 
000e6c50 
0021888b 
001e45e9 
00286000 
0007899e 
000f2166 
fffa5b8f 
001fbef4 
0027509e 
fff17c21 
0010753a 
00001e66 
0011cfdb 
00085fb8 
000dacaa 
0050bbde 
ff2b9276 
ff28fcdd 
ff25e7fc 
ff0dad5e 
ff24b1f2 
ff2308d7 
ff09929d 
ff427363 
ff4dd75b 
ff4edbf5 
ff4ae9ca 
ff15a028 
fffedb7e 
00c53dc9 
001a97ad 
fffe6f0b 
0026a03c 
001c6c39 
fffdfa56 
000ad53c 
0114ddba 
001bee79 
0036ec14 
ff1bb867 
000d0ed5 
002dda4b 
00122d74 
ffc0c8b7 
002cfbc0 
001997b8 
00256a67 
ffe089d8 
0022e243 
001b2432 
0023015c 
0003ebd2 
fff1a0d4 
003f5b90 
00313982 
0028ad88 
fffdd96e 
000ea651 
001e1c5a 
001db759 
00183ace 
001dd7db 
0020d6a5 
000a9319 
0009f8bb 
00266956 
00243743 
0005dc2a 
00220a7f 
0005618c 
ffedf74f 
0014df4b 
fff7e14e 
000dbd22 
000987eb 
002a8d1d 
002e7b6b 
0009b11e 
00253909 
00083728 
002806f4 
002732c0 
0002975a 
000f3fea 
fffb67a0 
00242781 
0029ba1e 
fffaa3e9 
00205878 
001099f7 
00077996 
000fe71f 
00024c4f 
ffe9cbfe 
001ff43a 
00196310 
00032803 
00032dcf 
002f473f 
003434f3 
0006ba06 
001f2120 
00288ff3 
002efd6b 
0000a21e 
00161750 
0021b831 
0027640a 
002912a8 
ffefd5f1 
00248f5c 
fffa1cd6 
00003a47 
003106cc 
00000000 
