00000000 
ff85c92e 
00284655 
0006407c 
000ee5e1 
feea813e 
00192d4d 
00278622 
fdfaa3e4 
006416de 
00332a7f 
00124cb3 
002fa908 
003512f3 
fe61feec 
fe3f3ed6 
00224479 
0010ad92 
fdec52cc 
fe0ae270 
0049fc5f 
008e07ba 
00447d9c 
002c297f 
ff39146b 
fffad25e 
00052a82 
fffe2193 
ffa10818 
00185851 
000aea88 
000a73de 
001f3e67 
000cf07b 
001bbea8 
001e49db 
001820c4 
003ea1e3 
0015f556 
0017a6de 
fffe0930 
0004524f 
00adfd49 
fffacefe 
0022834f 
000bb634 
00029be2 
0001b7f4 
006b1b08 
001b1166 
000c7069 
003bd6e1 
001de160 
001f6124 
fdbb1cd8 
fdc6d3f4 
fff87236 
000a38a7 
003507a3 
001f2138 
00454af6 
00b77772 
0000f5d4 
00105682 
003b7b22 
ffbb159c 
ffc86f3f 
002f796e 
00133403 
0078cc42 
ffd67c6d 
ff278576 
0007a137 
006a7b6a 
00226afb 
00400c47 
ffe725ea 
0017e06f 
0003ebe6 
00112a50 
fe835084 
ffee440c 
fe3b282a 
feaa7f2c 
fe94c51c 
0015ce22 
004a575e 
0024cfab 
00353f9a 
001da489 
0024d427 
0020278a 
002ab6db 
000c74f6 
00202e63 
00023c8c 
00433da4 
00175efa 
00067f24 
0003c58e 
000f178e 
001c0803 
00481597 
fff6721e 
0005d8ac 
0027ba5e 
ff927bcc 
001f301c 
ffb882db 
00371d4d 
0007b9eb 
0029bdb1 
ff6da172 
00393365 
00401940 
ffb5e7f5 
fff5ce24 
0047658b 
00181240 
fffb5a24 
0012835d 
005daa59 
003425d5 
001fa51e 
00105861 
0009d6f0 
001fd22b 
ffec8958 
00186185 
0030714b 
0008847a 
009ffc8c 
0046e352 
000154bd 
000bdac3 
000e5971 
002a3462 
0037bb59 
0005ead1 
0028c0a7 
00199b8d 
0008c000 
00070117 
001d186f 
00326cea 
00140cd5 
00250e4a 
0015e39a 
00227a17 
002202a8 
001cb2df 
001e514a 
0014e335 
fffcdbf1 
002f7746 
0029df15 
001c3ce0 
000eba9b 
ffec8e9e 
00010efb 
ffc6890f 
ffc6d848 
ffb8d6b1 
ffe278a3 
ffefd96e 
002f921e 
0020b4e5 
001359ae 
00121f9f 
fffc4319 
fffd44b2 
00d4e22c 
002d7414 
000a4960 
003a6cef 
fff49994 
fffcf914 
0021b2ba 
ff585eb0 
000b80ab 
00286d1a 
fffa4d22 
ffee76c5 
000c615d 
00260986 
ff07ccd5 
000f2fa8 
0041d0de 
00175446 
001cdfd8 
003f451f 
002047e8 
0024b191 
000a5917 
00199a67 
0044b715 
0031bf8e 
0038ea3e 
000598a6 
004cc0f1 
fff98ecf 
fff7d806 
000dd47c 
002c32f2 
0050b880 
0028f9dd 
000a3206 
fffac09c 
00100b9b 
fffb6ebc 
003c8177 
0020e0dc 
00108584 
003e7157 
fff968d0 
00446709 
0015543c 
003bfedb 
002ddf4b 
ffeb0a7c 
00020c80 
0019af46 
00275c35 
0024a754 
0000f7cd 
00107708 
fff022ad 
002e82a1 
00118e8d 
00193d78 
0016eb96 
fffcac75 
001158ff 
fffee280 
000d7e45 
001db585 
0012a8a6 
002332f6 
0009458b 
000d7f47 
0015a05b 
00278397 
0034d4d5 
0024f927 
0021801e 
0022e1a0 
0012c458 
001bd840 
00027881 
00356e74 
0030cac9 
001c40f1 
0011d520 
0021c4f9 
001ce820 
0059821c 
00000000 
