00000000 
ff15e204 
ffe48786 
ffeda4a6 
ffc5424c 
ff7e74c0 
fff835f8 
fff9d58c 
0066327b 
ffe0c1f1 
fff7dcee 
ffef4314 
ffc095f6 
0005a14f 
00611e89 
ffb787c3 
ffee57e4 
002a041c 
002c480c 
ff2e522c 
ffe28a06 
0100b312 
0009d599 
fffcbe21 
00820a25 
fffdccfb 
0003e983 
000ee469 
00f041fa 
ffce4fc5 
ffe7f157 
ffe87d79 
ffcbfd46 
ffd947ba 
fff915d0 
ffcb45ab 
ffed5674 
0005cfd2 
ffeb9e75 
000ad017 
00208c46 
fffb7901 
fec5482a 
ffee3d7b 
fef359fe 
ffd20538 
fffc6554 
ffe14239 
ff20feb3 
001e95a8 
ffffb8af 
ffdb608a 
ffe12931 
fff630e2 
00586cfb 
003ab5c1 
fff6972b 
00062624 
ffe19820 
ffeadd4d 
ffd5e594 
ffca2455 
00053a20 
ffeea77d 
005772a1 
015361d0 
00cfdafc 
00d3b763 
00a3d975 
0110492e 
0069d33b 
00392396 
002d8614 
00872c70 
00abaa08 
007c47c6 
00af9c10 
ffdff383 
ffc93adf 
ffda1bd2 
ff234598 
fff49c10 
ff868ccd 
ffd04df9 
0086f83e 
ffea58a7 
ffe240c2 
00027b5d 
fff58b3d 
ffc28b04 
fff4909a 
ffcb9304 
fff6de76 
ffdecf89 
fffd0a74 
ffd2953c 
00142740 
ffea102f 
ffed5531 
00126bfe 
ffc85da0 
fff6f6cf 
fff5f51e 
0001e2fc 
ffc74d6a 
fff4b4df 
01dc8530 
ffe1cd14 
025300d4 
ffe12dcf 
fff37c38 
000ced5a 
01f6f7a6 
ffe733ba 
00186004 
02549b24 
ffea97e5 
ffd96c33 
fff8d620 
ffe25f1b 
ffeab1ed 
00852797 
ffe4e1dd 
fff3141c 
ffe302cc 
ffca2b3e 
0004976d 
ffcc1014 
ffe492f2 
ffc4c513 
fff7023c 
fff77e1e 
000efc6b 
fff70b9b 
ffef42c8 
00012fe6 
ffc861b9 
ffd88fd6 
ffe45a7f 
0005fc03 
0017750b 
00094d18 
fff440b9 
fff0a71e 
ffe28b88 
ffe9b23b 
fff74363 
fffb7637 
fff781b4 
fff34226 
fff6d5e8 
ffdfa9ee 
fff93501 
ffe55bba 
ffc9aa78 
00120198 
fff0195c 
ffde9d6b 
003f9785 
0088c3ef 
002eb42f 
00486249 
005e3a36 
003918a9 
004995a5 
007b931d 
00986ebc 
0072200d 
004c7b58 
004e24af 
ffee9ef6 
fe9bbdfe 
00061fa8 
0012ccea 
ffecfb02 
fff7d75c 
0007d774 
ffdc1cbc 
ffe63112 
fff49f23 
ffebfa3e 
fedae700 
ffdabfcb 
ffcca8f3 
0026ee54 
fee96f30 
ffde4c1b 
00069f04 
0004dc96 
ffcf4476 
ffe87409 
ffd3de1b 
ffe88396 
00006afe 
ffdfef7a 
fff333a8 
ffcdc7f8 
000ec163 
ffed617e 
ffe42dca 
ffeb3f41 
ffd055ed 
fff03401 
ffe33032 
fff21bcf 
ffcac90b 
ffd1b55f 
ffec86da 
fff6a700 
ffde46d4 
ffc6a8ea 
fffae33f 
ffda034b 
000a1fbd 
ffc298c4 
fffdb440 
ffe6487e 
ffe590aa 
001b8df8 
ffed319c 
fffe9c20 
00011d62 
fff4d5d8 
ffd746ac 
fff7e875 
fff45e39 
ffde8419 
fffa8204 
0016c57c 
ffd43b1d 
ffd52ef8 
0008d7d8 
fff391bc 
001e8736 
ffff78e1 
ffee4ef3 
ffdd8157 
0014e241 
ffd889b9 
fffb6646 
ffcd2787 
fff56638 
000229b9 
00013b02 
ffda78c8 
0005bee2 
ffdc1248 
ffdeedfc 
ffe45513 
ffe98caf 
000884a0 
ffe96ae0 
0003d42f 
ffe3ae20 
fff79571 
ffeb316e 
00000000 
