00000000 
ffbc7efc 
00130773 
00352c2d 
fff8cb86 
feb30156 
0021d832 
0016fb06 
ffa31353 
00270227 
fff176db 
0014d818 
001937ca 
0032c396 
ff24748a 
ff81a4c3 
0008902b 
000fd7ad 
fff8f473 
ffa7af32 
00275564 
ff282e8f 
ffe66a11 
0004f4a8 
ff546c7f 
00043a85 
0040aa26 
000c51b5 
ffad8ed7 
00227460 
002aa8e1 
003a5cd1 
0023a163 
00462969 
000e6b1e 
0034f9d8 
0017ed93 
003d65e3 
fffe54cd 
001e58f5 
00196559 
0005d889 
ff02fa95 
0033a629 
ffaf84e4 
ffec409d 
003d7856 
002995af 
fff1a735 
0010e189 
000e5d21 
0018d7be 
ffeb63d0 
000354f8 
01eb6f06 
01d8b3c8 
00282b74 
000b5b44 
00235b15 
0002f584 
ffa59071 
ffea1c87 
ff9fc0dd 
ff700ebf 
009dc2b9 
ff40a2a0 
ffbb915c 
ffe44f8a 
fef21f6e 
ffa5f539 
ffbc7040 
ff9c2978 
ffd442ce 
ff8838a2 
ff662118 
ffc632e2 
ff52d8d0 
0037a964 
ffffd79d 
00114cda 
00806434 
003d8ce2 
009fca3f 
00282588 
0181d008 
0013b490 
001ea350 
002df034 
fffcd63e 
ffef2530 
00123802 
001afe43 
0025369e 
000178ad 
002a2037 
0026e494 
fffed463 
00266e85 
000b6628 
00287195 
fff79563 
0025957b 
00087fc2 
001d4db5 
0007f9d9 
0042512f 
00b47363 
0023a6d8 
009e25ab 
fff24f98 
00038953 
fff9a593 
0093b705 
002467dc 
fff1d0e3 
008f9522 
000700a0 
00189ce5 
0033bfdf 
00343cff 
00203138 
ffc8ef36 
00079b7a 
00118b9c 
ffd7563c 
00071f93 
0011752c 
00126d4e 
001414f2 
fff1e178 
ffba7238 
ff44f293 
0021079f 
fff0d839 
000dc746 
0014f578 
00001ccf 
001cd427 
00064111 
ffef84cb 
0000d359 
fff4939f 
001e0f5b 
001dce90 
00331e03 
001e7a09 
00342a1f 
00280d4d 
ffe48b07 
000056fb 
0007e91d 
000805d8 
003ba869 
001470b1 
00202baa 
002cb7fd 
fff535df 
003cc152 
ff3ba201 
ff3863f1 
ff313a2f 
ff304da6 
ff3f8a60 
ff29f87d 
ff35d8c6 
ff38c772 
ff29de93 
ff4a25b2 
ff483954 
ff370456 
0017564e 
00595c59 
002e5787 
003169d4 
0011aa25 
000de997 
0018edb7 
ffe9fb55 
005225df 
fffa8355 
fffbad31 
0061557f 
ffff019d 
001ce036 
00147f62 
ff4de10d 
000acf00 
0007c8b1 
00123224 
003382f2 
ffe10bae 
fff592b4 
0018d6d0 
001d2a50 
0038cd0e 
fff9bde3 
0025afbf 
0018a33d 
0009b524 
00225818 
000ac983 
001f40de 
fff6119b 
fffbeb2f 
000a32cf 
000b50ad 
00371d83 
00159c45 
00006849 
0028842f 
fff9c2c6 
00363369 
002f6ee9 
0032aa29 
0025ef1c 
001ef19b 
0014609e 
002523b6 
001c0769 
000bf8f9 
0013609f 
0064c409 
fffd8985 
0021bd03 
00073be3 
0019702c 
0022767b 
001096e9 
000b0bfa 
fffde178 
0028cfe1 
000022ba 
0016697e 
002a0022 
fff0bdf0 
0002a46e 
00430ac4 
0016cb21 
0005bc6e 
fff5b7aa 
0028a88c 
001fe517 
fffd11ab 
fff9d174 
fff3496f 
000bc90e 
000e7c28 
00128392 
0033a5e7 
000f0c9a 
fffac045 
000d284a 
0021e874 
fff1de1f 
0025e320 
00169b04 
00000000 
