00000000 
0087551f 
fff5feae 
000dd86c 
ffd5c9c9 
0214c1fc 
ffd68588 
fff669bd 
01b018c8 
fffac210 
ffd0f8ed 
ffce655c 
ffe7d595 
0007f5f3 
0198d7ba 
01d6cc08 
ffdebd9a 
ffcaba4f 
01d8e770 
01fd7928 
fffc0db3 
005383ed 
ffd39ed7 
fff52187 
006d6487 
ffeb0dab 
000e6b7e 
0000f553 
005dd9a0 
fffc408c 
ffc7874f 
ffdb604a 
ffe195a4 
00005043 
ffca1a04 
ffc9480c 
ffed5a7e 
00207e8e 
ffda9bfd 
ffbaabfa 
ffeb4913 
ffd5f4c0 
0059dcbc 
ffecbf40 
009a8268 
ffd06445 
ffe438fd 
ffdcf26e 
003e6260 
fff09ecb 
ffd49716 
001af844 
fff8a2fc 
000af196 
ffc71b32 
fff12d74 
ffba69b0 
000619bb 
ffee8f80 
00327827 
01d3544e 
01cbb57e 
01961c06 
00abbadb 
ffe0f631 
00465ecf 
001025a0 
fff7d7ec 
004d2025 
001925eb 
ffe5f1a6 
00126f08 
ffa0aa22 
00657964 
002680f3 
ffca0481 
0033bf85 
000e16ee 
ffde6d96 
ffe6b5e4 
00e6e63d 
ffca404f 
ffd11d85 
00bf248a 
ffc9fcf6 
ffd90850 
00119313 
fffbdcc6 
fffaf65c 
000e6707 
ffe20167 
ffdaa4f8 
ffded786 
fffde0db 
fff3e101 
ffdc8059 
0026a847 
000a3307 
ffced09e 
ffd593c8 
ffdb4cb7 
ffef8e25 
ffcd958a 
fff61395 
ffe12169 
fff0fa70 
002a5e87 
ffe8610e 
00711975 
fff6d770 
fff6aa38 
ffdd5bd4 
0077c3ca 
ffed08fb 
00055219 
004ed192 
ffe1350b 
ffc9dcca 
ffe3529a 
ffe6171d 
000648d4 
ff9543b5 
ffcb3b78 
ffe2a152 
ff87bff2 
ffe57ec7 
fff8d08a 
ffe67e0e 
fff4f87d 
fff0a85e 
ff6ddad8 
ff552eb4 
0004f8ad 
ffe0b39e 
ffcf7e66 
ffd6633d 
00028790 
ffe27b2f 
ffe544d7 
ffc9a44c 
ffe459b6 
ffe10131 
00008553 
ffdcbac9 
ffe3ba71 
00017914 
ffdf469b 
ffef0479 
ffe6b14f 
00002a15 
ffe5cd5b 
fff02308 
ffc906c3 
ffe5bdc5 
ffec3522 
00010ff7 
00017c91 
001ef972 
ff8fdf67 
ffa74197 
ffcc2ac3 
ff79d7b3 
ff98791b 
ffd83b06 
ff802f74 
ff3fba50 
ff59fc59 
ff8d1389 
ff968086 
ff79bae5 
00088023 
0138a402 
fff935ec 
fffd6209 
0020bb21 
ffcfab5a 
ffe88ba7 
fff64a34 
005073f1 
ffe9f18a 
ffee3441 
ffa314cd 
00132b6a 
ffefe683 
fffb185f 
fe95a1b0 
ffd211ec 
0015c4c3 
fff46be5 
fff68e26 
fffd4ff9 
ffda70ca 
ffdf20ca 
ffc5ec6c 
ffd098bb 
ffd61a29 
00037604 
ffd2ca08 
ffe8828d 
fffae9e0 
ffdf8acc 
ffd4b706 
ffe90732 
fffea731 
00139117 
fff5e593 
fff76080 
0002da02 
ffaf800c 
fff52bf1 
fffd9618 
00061c93 
ffdb3def 
ffef1384 
ffdc53fc 
fff95ef2 
fff5941a 
fffbe769 
fff44f09 
ffcf7421 
ffb5d238 
fff2907f 
ffd869ad 
0016b9cc 
fff13c62 
fff5daa9 
ffe7a689 
ffed8785 
ffff7aeb 
fffac693 
ffe38fc7 
ffd77428 
ffd73ff8 
ffd4566b 
ffd8a29d 
ffd53d45 
ffe4f663 
ffec683d 
fff5561d 
ffc82ec4 
0006ba4b 
ffe9ee98 
ffc8f8bc 
000a30b7 
00067d97 
00082f89 
000104dd 
fff391d6 
ffc1ade5 
000fc922 
fff5513c 
ffdfbfad 
fff2d6e9 
ffe0f1c3 
ffc727f8 
fff93bae 
00000000 
