00000000 
00246ccf 
00018ff3 
0021ea0e 
001a5dcf 
ffc415f0 
0007d563 
00078df6 
ff55c7fa 
0004c534 
0001a3e5 
0001e743 
fff47d9c 
0000b01f 
004d1153 
ff98e7e8 
ffebebf0 
fff3b396 
001d48af 
003c4b1d 
00047898 
005abcca 
0000f07e 
fff0f63f 
01524d34 
ffff7e13 
001207d1 
00194f66 
00b9358f 
fffaa4b7 
001185f3 
001013ec 
0038a8d0 
fff5a61e 
0025df0c 
0027f409 
0029da06 
fff136b4 
001499c8 
00287aba 
000cf0b1 
0022f388 
ff09c2b6 
000ff687 
ffacd890 
002f914a 
0014a5d7 
0035dbf8 
ffbfb828 
001aca71 
00074ede 
fff15c53 
002456a1 
00071f52 
fe1b3c0a 
fe3d228e 
00338163 
000d8cb7 
0008cb96 
0002bda9 
fedfdfd2 
ff7143c1 
feef7faa 
ff3aa35e 
020292ec 
00407c4e 
0024f1e4 
0033e8e7 
00299ec1 
ffd4e3fe 
ffe7dc81 
008caadb 
ffb8e66a 
ffb4e56f 
ffc22b1b 
ffc44672 
0010b930 
000fc352 
00270cce 
0018109d 
01009718 
0000eadf 
ff6e1448 
00a10914 
feacd4f2 
002b89e2 
00210273 
002deb59 
001a6da1 
00076a3e 
002b883a 
ffeccd26 
002e8a06 
00054a2e 
00224bfb 
ffef9206 
fffb0ddc 
fff63eab 
002215a4 
000df81b 
000a43e0 
00083ee7 
00269e29 
00122a9a 
001e9b94 
fff9be66 
01a5dc4e 
001be8af 
01fe7aca 
000d820a 
0019803d 
000ffa3e 
015b81d2 
00197957 
0015a182 
0175e664 
001878ae 
001ba30a 
ffe3eaa5 
0000f6b0 
000f6a4c 
ff1b365b 
fff017ec 
00063fa1 
ff64dada 
0025b5e3 
002a5352 
00117dd9 
00091fea 
0006215f 
ff219a95 
ffb73781 
0023e80d 
000c906a 
fff2ae89 
000d9ed2 
002e787f 
000b0bb5 
000d6db0 
ffe826d1 
000c9633 
00211e29 
002a0317 
00260760 
fff4fe32 
fff5c1f0 
fffe6249 
fff733c7 
000ea03d 
0011c479 
000e7c6a 
001db70c 
ffffb542 
002c6804 
00387609 
000f1939 
ffebe6f0 
000577eb 
ff43489f 
ff2439db 
ff29a515 
ff53e4ef 
ff312b90 
ff3b86d6 
ff5a45ee 
ff34987f 
ff4f9897 
ff417e65 
ff3dcf58 
ff4ce97e 
00101a14 
ff83fbe6 
0032b287 
0021a4ee 
fff87c79 
fffe8dae 
00258335 
ffe46d9a 
ffe8794c 
00189598 
0004080c 
0061e188 
003948c6 
0025ed9e 
00125994 
00989c72 
00045834 
fffd5232 
000d7d6e 
001e00bc 
fff5e351 
ffff583c 
002c2bf3 
000cce52 
003a2913 
0015ab45 
fff97edd 
0009fc84 
00128f92 
0007ab0e 
001eb52d 
ffdcf55d 
001f50df 
ffefb2ae 
000c83b0 
0024d648 
00164cb4 
003e3f9f 
fff83dd6 
00044c6a 
002cf92f 
fff8bde3 
0017a8ae 
fffee8a6 
000f8c27 
001aae52 
00381b6d 
0027afa3 
fffc8a88 
0015e819 
001f8063 
0006b9e9 
00254676 
0018643d 
fff964cc 
fff5b4f2 
001b5c8d 
0021cb94 
001e2384 
000bbb5a 
fffac154 
0014b4d5 
fff2d8e2 
fff4ad4b 
00155a4a 
000889e0 
0028775a 
00194ec5 
002c18bf 
fffe095d 
000d9758 
001b42e4 
ffeefa36 
00196e02 
000f8d70 
002796f2 
0006034f 
001536c9 
fff24c85 
ffd565ac 
0003845e 
000fd4a1 
0010b9ed 
001ee5d9 
0013ddb3 
ffea7f8b 
00000000 
