00000000 
ff5d6774 
fffb7e28 
ffe526f7 
ffe326aa 
00b83bbf 
00051cef 
ffecf859 
00ac9c4c 
ffdb68fb 
0011b966 
ffce7c79 
fff3c363 
ffd4988f 
005671a6 
01293140 
ffd73683 
ffe6ffc3 
00bc0e40 
00855d21 
00062034 
ffac3324 
fffd7525 
ffcff535 
0032a17c 
ffecb6c8 
fff2ead5 
ffce896a 
01274d60 
ffcdcc2b 
fffe58f9 
ffe2e468 
000f537c 
ffd944b9 
fff4e7a7 
ffe49c24 
ffe939c0 
fff48e6c 
0010b109 
002860ea 
ffeeb0c8 
00092335 
fffd322e 
00195029 
ff36b91a 
fff8330b 
001549a5 
ffe6f4bf 
ffc51a78 
fff02508 
ffdc5639 
002a0b21 
ffe62574 
00116714 
00e6dd59 
00b714f5 
0002c633 
ffeabebf 
ffd80b8a 
ffe1c4b5 
ff2f96a7 
ff907073 
ff745ca0 
ffa0b06f 
00cc40d3 
0031b51b 
0103048e 
ffc9856f 
ff336cf2 
ff75ce2e 
00096be6 
00dbe3f4 
ffbfae68 
003bc7e1 
ffe72543 
ffef27a9 
ffd52bba 
ffdea8bd 
ffd77c2d 
0013ccfb 
00aeca49 
000bd491 
000955dc 
00cd7a31 
00e3e15c 
00009b44 
001a85cf 
ffe954bd 
fffe3377 
ffe89000 
ffe87bcd 
fff9f550 
ffe2be1e 
ffd49e37 
ffffdbc6 
00197831 
fff89315 
fff27f10 
000c8220 
ffeb43cf 
fffa524e 
fffb1926 
ffe49c0e 
ff9f83b1 
001ec72f 
000fcc07 
0083ad63 
ffd071eb 
ffff3909 
ffcdab9f 
ffda038d 
fff14748 
ffbcc43a 
0007c430 
0007c536 
0014ab5d 
ffc002aa 
00171497 
fffae08c 
ffca2d3b 
ffd2c82a 
019049e0 
ffe284d5 
ffc212c8 
01226688 
ffd9331a 
00231543 
fff1af09 
0002dfa4 
0002731d 
017e5aca 
01634c9a 
ffde47bb 
fffdc1a0 
ffec1fc2 
fff9d5fa 
000003e9 
fff7b0f4 
fff3f2c8 
ffd213ca 
ffe89566 
000dd553 
ffdad95f 
ffe97205 
000f86e1 
002a2bcb 
ffec16e2 
ffd6422b 
ffbe010d 
ffee2747 
fff07ccf 
0011f11a 
fffb8344 
ffff1d9f 
001a7529 
ffd299bf 
ffe7be56 
fff5a6d9 
ff7e48e2 
ff62d5ce 
ff72f715 
ff7a75bb 
ff6b6fd2 
ff867ab0 
ff8b7315 
ff7505d2 
ff63784f 
ff831635 
ff905786 
ff8b2fbd 
ffdf2488 
ff78ce3d 
fff8e54f 
ffd67cb8 
fffe2ad9 
ffd28b1d 
fff4eec0 
001d2ab6 
ff657eb7 
fff13e82 
000a7cfc 
007d2e7c 
ffeb2e04 
ffe89b0e 
00203529 
ffe0eab7 
0010b7c6 
ffe4b4ec 
fff679ea 
ffd4eaaf 
ffc92473 
ffedf819 
ffc4092b 
fff11863 
00049145 
ffecc158 
000b41bf 
000db116 
ffe8bd50 
ffce1ecb 
ffd5d419 
002a3b96 
ffe66ce2 
0026245c 
fff4c102 
001c2e62 
00013dbe 
fff8d1ac 
00066edb 
ffec8406 
001be86a 
000d83a8 
fff688c0 
0017aecb 
ffddb6b4 
fffb973d 
ffc14d53 
ffecb4f0 
ffe4dc0b 
001f019c 
000d9918 
003622b3 
0001f627 
000d7b7d 
000911d6 
0014e366 
000ba7a4 
0001482f 
00096e35 
fff9ca08 
fffac290 
001c6e1e 
ffe4f0cd 
ffb241c5 
ffd68ff4 
0004b407 
fffeffff 
fff988de 
fffd506e 
ffe09ce9 
fffbdd0e 
ffe355f2 
fff34365 
fffb8309 
0029f25f 
ffc41e6f 
0019db6a 
ffd97c21 
0022b555 
fffb9e90 
ffde90ee 
ffe432c2 
fffe85b9 
fff5c851 
fff64ad0 
00073965 
00000000 
