00000000 
0083ab8e 
00263c45 
fff5f680 
0009b6e3 
00320e18 
00185440 
003d861c 
00037262 
ffc9b574 
001975f0 
fff5a50a 
0005b268 
000271d0 
ffd9079f 
ff9ca028 
fffcf640 
000c4cb6 
fef8c01e 
ff53aee4 
00255b14 
001d8e08 
fff2b350 
fffe373b 
ffee0fa8 
000637d8 
0029ff3d 
00097d53 
ff7d2aa9 
0021b8a4 
ffe49875 
fffd8fdc 
0018914a 
00155d90 
ffdc012c 
0008d358 
ffe5f51a 
0016a47e 
ffe37b2f 
00207242 
fff459c8 
000bac73 
003bc088 
00029e23 
005ec3a9 
fff1189e 
000a5eea 
0016a857 
ff811933 
00097665 
fff4d592 
001f4c0d 
0031a95f 
0008b15b 
009b67fb 
00cb1376 
000dc734 
001055c4 
0045b691 
002539f4 
0051eee8 
00c7ea0b 
00404397 
ffdf2baa 
000680c7 
00233ca2 
ffa68fbf 
00495c29 
0087b6bc 
003527da 
ffe766d5 
fff673bb 
007c88be 
fff606ff 
ff916e80 
001750c7 
006f36f6 
ffe68073 
0003fb8a 
fff1dddc 
fe7bb3a2 
fff69e5f 
fe901bd2 
fedb653e 
009fff8e 
002e5ff3 
fff54ef6 
fffe3ab6 
00061d41 
0004874d 
fffee050 
0015377d 
0001833d 
001b7f17 
0012908a 
000166fe 
fff16fc4 
0007adf4 
ffe4ebef 
0012dff3 
0032feb9 
fff8cca6 
000c3a80 
000f0343 
fffb84a4 
ffe4b11d 
0040c4f2 
000da742 
005d7b42 
00049d10 
0005fb20 
ffff37bf 
00009dca 
ffe5843f 
000db5f8 
ffb8ec65 
0016ef38 
000a735c 
000e6c8d 
000e49f3 
00138993 
005a8bcd 
ffee2541 
00082b82 
00921234 
000ce6b2 
000beeda 
002278ae 
0009628f 
ffd49424 
00624165 
004b57b4 
ffe70293 
ffef4f12 
0027ef0b 
ffecea46 
001a09ed 
ffdb90ed 
000ef3de 
ffff441e 
000b6f0d 
001a0326 
fff45b80 
00136801 
ffdebccf 
002255d0 
fffb5010 
0015c75d 
fff70a3b 
00244e73 
000a4692 
000c7af5 
00425fd7 
000dfead 
0009330a 
fffa4745 
fffe71e9 
0014c108 
ff714031 
ff38286b 
ff4d6209 
ff4917b6 
ff1ee517 
ff618f2a 
ff6c0366 
ff244c15 
ff2311fc 
ff21ce07 
ff2b19f0 
ff73bcb0 
00099820 
ff57fc30 
fffc5c38 
ffff0350 
0028c71d 
fff9b02e 
001a76a7 
00162c2c 
0057a411 
00183dd5 
ffef3132 
000aacc5 
fffff7d8 
00119480 
ffe5c60b 
ffbf8238 
001e2552 
fff10822 
00099deb 
000d6400 
ffe9c0f9 
000b4385 
00261d7d 
00075116 
001a4051 
00061600 
fffeedfc 
00054f47 
005df2c1 
ffe6118b 
004c437b 
000e323b 
000963d3 
0002d5f0 
ffe693dc 
fff34317 
000f88a3 
0009478a 
0034c276 
fff3b632 
ffe83caa 
001454ce 
00288036 
00129248 
001c99eb 
ffffabc9 
001e5bb6 
000404c3 
0002927e 
00357689 
0015aee2 
001202a8 
fff768c8 
001530ed 
000af4a2 
000c4989 
001fe475 
002486ac 
001010e4 
001bd7e3 
001ea755 
0003717b 
0020d901 
ffcfa42c 
ffe99d77 
001fe801 
00035ff9 
fff6233d 
002dad7c 
ffe16b50 
0013f1a9 
ffedf65f 
ffff1c0f 
000b9977 
0001b376 
ffd4c751 
000f118a 
fff48dcc 
001bd4ed 
0013ecf4 
ffe8985d 
0011ca4a 
00042e61 
002968ef 
00051b4b 
00218d92 
00000000 
