00000000 
ff9edd19 
ffdf09ae 
ffcf50e0 
ffe3d056 
ff32ea8b 
fff61388 
fffb5e8c 
ff302097 
ffe79b66 
00090956 
fff5353e 
00059225 
fffe829d 
ff03b58f 
ff8215f6 
ffe895d3 
ffede916 
ffa0e47d 
ffadf078 
fffac139 
00105d54 
ffdc46ec 
ffd12327 
00dd957a 
fffdc342 
ffee60d4 
ffd26dde 
fffec54f 
ffeea936 
ffdd6a9c 
000c97b0 
000fe6ce 
00183336 
000d923e 
fff03f64 
fff5efa7 
00180c98 
ffef0656 
000269f0 
ffe86d0c 
ffdd39bb 
ff6c6c17 
fff07071 
fff055ce 
fff7c7dc 
0015af3f 
fffb6bb7 
ff9a3213 
fffe9d6b 
000141f9 
ffeb4d95 
ffce9e38 
fff22001 
001c3669 
fff5ace9 
ffd4cc77 
00032f2e 
fffa4a17 
00063f65 
00203487 
004456db 
002d625a 
fffd6a5a 
00de7209 
fffc8d34 
0061a02a 
fff8c110 
001164a5 
002ac8c8 
fff3d63c 
0005acd7 
000ac234 
002d5680 
ffd0dfc6 
00121643 
ff9abda9 
ffdd3277 
0013ade7 
00141b3a 
ff5f3d8f 
ffee08b1 
ffe97a6a 
00afc128 
ffe854a6 
00161ab5 
00129c9b 
ffee837b 
00056cd0 
fffde3e1 
fff4f1ca 
00082fd9 
00161983 
ffdb3f6b 
ffcb1ea7 
00101fc7 
ffdc5087 
ffc553a5 
00157667 
ffe1c431 
0001802b 
ffe91e2b 
fff8dcbf 
ffdc1a4f 
ffd0854b 
ffd3f8b1 
ffffdff6 
fff9ffe4 
fffd6ebb 
0004c20b 
ffceaedb 
ffd66639 
00138963 
ffccb818 
ffe72281 
fffef854 
fff857d7 
ffe5c00e 
000a46b1 
00077da5 
ffe42e3b 
01dba072 
ffc1c5b3 
ffde3fa5 
02268fa0 
ffed1024 
001239ca 
ffe53dee 
ffd741cb 
00104742 
01e1b5a8 
01e99e18 
ffd6e4cc 
0003d602 
000e5a24 
fffc878f 
ffd3e335 
ffe805c9 
ffca5240 
ffd9a78d 
ffaff2fd 
ffee797f 
0014405b 
fff5c190 
fffa8ff6 
ffd4055c 
ffdedbaf 
0012a27e 
fff3848e 
0009068a 
fff6a69f 
ffe7b78b 
000029c0 
001d94a3 
000198e7 
fffdcdc0 
ffc62ed7 
ffcb738b 
00b0c095 
00d40f2d 
0087ebc4 
00a5cfb5 
00b7587d 
00884ad4 
00b020c5 
00f93eed 
00e156e1 
00cdd244 
00c625ef 
00cf997f 
0005a4f4 
ffbf5485 
fff25e65 
0013c4f6 
ffe44e19 
fff09abc 
ffee998a 
ffe0bd2a 
ff122175 
ffe706ad 
fffb910e 
feedd85a 
fff0a7a0 
ffedcf29 
ffd2675c 
00573ad2 
ffe00d93 
ffe01896 
ffdb7bc8 
ffd1a07c 
ffe06055 
fffaeabb 
ffdd0de9 
0009cce7 
00147a78 
fff4879e 
ffe12ff5 
ffd986eb 
0026cd55 
00036b27 
fff45955 
ffeda4b5 
000f7e2c 
ffbdb795 
00097022 
fffe332c 
ffe67cad 
ffc2318a 
ffe4acec 
00019776 
ffde5434 
ffec6941 
ffe82727 
fffa8e3c 
ffec3620 
ffe803e2 
000b0eb7 
fff0809f 
ffe3d843 
fff2e42b 
fff3164f 
fff8056a 
00226633 
ffc0d708 
ffea31a6 
fff5e70a 
fff25bfb 
fffac206 
fffd3649 
ffbe6ddc 
0002e464 
ffcf2eb3 
ffd91dc7 
ffe2ff14 
0009e8c2 
ffe4dde8 
ffec5086 
ffdd98bf 
ffc59a9f 
ffe55a07 
ffd96c23 
fff2d0d2 
fff6e603 
ffece289 
ffe64b1e 
ffe8dc2a 
ffe2981a 
ffe5c8f7 
ffeb23d1 
fffd1bc5 
ffd7ae01 
ffbda422 
00071014 
ffd3c5b6 
ffd3429d 
ffe783ee 
00000000 
