00000000 
ffb4a246 
fffb0f70 
002acb4e 
ffff72b1 
fe2a5424 
00053cb5 
001a4604 
fd7fbe44 
000034c0 
001cc934 
0006123e 
002a749a 
fff56971 
fda1f9d8 
fde6c9e4 
fffc326d 
00191319 
fe0dd9d8 
fcfddc74 
00156462 
ff84ac56 
0018aebf 
ffda6de6 
ffe206b4 
00223eec 
ffd06730 
0023a1ae 
000df7c9 
000cb015 
ffff1c83 
00230fcd 
00397935 
0044e506 
0005eecc 
003106ed 
00256bf9 
0011f418 
0003be84 
001aa92c 
ffd9cc5e 
ffefe529 
ffe63b17 
001bbbc4 
ff5943c2 
0032eee0 
001894e4 
0003314d 
ff85cb0c 
fffe910a 
002d437b 
000c1337 
0017ab57 
ffea5749 
01d051e8 
017d90f2 
001dcf84 
00359290 
0047fa81 
002970e6 
018d393e 
013cd170 
0129e714 
00ad6dbd 
ffc1d165 
ffc50184 
00066c7a 
ffcb99a9 
ff8cd65a 
ffac2289 
ffcf89bd 
ffce0915 
ffb03890 
001f6490 
fff14145 
ffe6aedd 
ffcbc791 
0007ec65 
000ed33e 
00151829 
ff03e040 
001b580c 
ff51b459 
ff6446ae 
01c4d0cc 
000bc296 
0016ce0f 
000d11dd 
002522c1 
ffebb68d 
001acd8e 
0001a112 
001c8a97 
00201b62 
fff002e1 
000ecdec 
00222944 
00060139 
000e77b7 
0003dc8a 
000a1c34 
000d7a68 
0009b52c 
001fc552 
0029129f 
000678c9 
00a9d216 
fffec635 
00b37d92 
0026e10f 
00069b50 
ffedb8c6 
00b9787f 
fff8b93e 
000d0544 
00dfcfa0 
0021182d 
00039624 
003b5f04 
002114f3 
00315304 
ff661b38 
003071a5 
ffe5785e 
ff3fd8c7 
00030239 
000b68fd 
0018ebbf 
000cf3da 
0008ddc4 
ff9604ad 
ffa44e40 
002ff626 
001a1ff4 
fffaf641 
0029902d 
000ff9a3 
002758df 
fffc8f0e 
001f31cf 
001937b8 
000bdb5f 
000f18e6 
ffdc94d9 
0000c006 
fffa8790 
00109285 
00147375 
001b10c4 
00076daa 
001f2044 
0005f815 
fffe8df5 
ffe5cec8 
00455207 
001f1736 
ffe40a66 
001433ca 
ff94fc74 
ffb24665 
ff6d19c2 
ffa4d44f 
ffa766b2 
ff68af54 
ff931a92 
ffb820de 
ffa5e180 
ffa737de 
ff9d33a7 
ff9d8af0 
003a2985 
0053ba72 
ffd4dae5 
0017d3e0 
00164848 
0027178c 
00074c18 
001a62c2 
003d0da4 
002ad1b8 
0046e1a0 
011e6cda 
001bca7b 
0004f2c3 
fffec057 
ff15b4b8 
00091582 
000da8b2 
001f10e9 
00129c14 
00316a3e 
0026382d 
00051597 
ffecc62a 
00357e4f 
002a543f 
000b0a3f 
003c53da 
001b1256 
001363ed 
00108c02 
00263cf1 
002f88dc 
0010c382 
002aa346 
001ac062 
000e6593 
fff34cfd 
0009607b 
fff84db5 
fff88d92 
00091927 
002cce3a 
ffe5a2ac 
002309c7 
004888e8 
003618a1 
fffe6f0b 
ffdc0d71 
0016139c 
0008f5c6 
0009ab41 
fff7f45a 
0010e406 
0018c6f4 
001c8b1c 
fffbd670 
002db85b 
001ca3a1 
ffeeecb9 
ffe85868 
00006332 
00187b48 
fff181fd 
0032bbc0 
000fb7eb 
001d7261 
0007a403 
0008aa75 
fff7eb24 
0026d17e 
fff4ceda 
ffe006e2 
00101d53 
0049be74 
00234066 
001bfe84 
0003c614 
00002640 
000bc69b 
000f0060 
fff31880 
000f6675 
00273f60 
fff38f39 
0057ea93 
00000000 
