00000000 
ff06bdb6 
0016247d 
fff74681 
00138b0a 
0022ba8b 
0017067f 
ffd1eda4 
ff882210 
fff707cb 
0007c2dd 
ffe0e70d 
ffc33858 
fff291a6 
005f2c6e 
ff884a36 
ffe694e5 
00197f17 
005b4063 
00567bc6 
ffef9e0d 
ff665f03 
ffeeb0ed 
000054ad 
ff32ea6c 
ffe43589 
fff46d15 
0020940f 
fe9e31a4 
fff6ec1c 
00072a53 
fff5cb60 
ffe3cb8b 
00059586 
fff437fa 
0002456b 
000749dd 
ffda1fed 
0011685e 
ffeb0308 
00161776 
fff39315 
ff97db1b 
0010786d 
ff896844 
ffe33819 
ffed6e7e 
fffec9c1 
0008a637 
0004c86c 
fffe4af1 
fff97dd7 
ffc28689 
001acdaf 
0163d73c 
0152c210 
fff562a2 
000d296c 
001dc175 
00179021 
0096887f 
008dcca6 
004f55f1 
00979563 
ff18af05 
feffd016 
febf6358 
ffe06f2d 
ff61cad6 
ffc8b1c5 
ff4e78ea 
ff345e10 
ffd54ae0 
ffb25d9b 
ffe39747 
ffa514e7 
ffcede4c 
ffd1d25a 
fffbe431 
ffef2591 
0070a648 
ffc18a8b 
0065574b 
ff367e00 
01394aee 
ffd15306 
ffe8f395 
00294ee1 
ffe129a8 
0018f87a 
ffd223a3 
001d4388 
00080c33 
ffe7c7ee 
00070317 
ffddf203 
0016caa1 
ffe96078 
fff02e10 
0018909b 
001fb55d 
ffee75cd 
ffee989d 
00044ebf 
ffdffb11 
00247314 
ffcea6c2 
00195806 
001a4d05 
ffd8bfa0 
000374af 
ffe29dcf 
0014ada8 
0000f5c6 
0008e782 
ffcc6246 
002d50c3 
001a5bf9 
ffda04c8 
000df281 
fff708fd 
0100d442 
fff346f8 
002be6ea 
00a64b07 
ffeb7db7 
fffaf35b 
fffb2e21 
ffee377f 
ffe38f90 
0132799c 
00bb15fe 
fff375b7 
ffcda81f 
ffc66ee7 
fffd7890 
ffdcc923 
fffd703d 
fffeabaf 
ffdb46bf 
fff89fc7 
ffc88bfd 
00050927 
ffda8acf 
fff7f4ba 
fff4b5e1 
001633a8 
fffe9524 
fffd67ce 
ffe3ea87 
fff16d8b 
ffeba8a0 
00166afb 
fff47500 
fff1d5b0 
000e3a28 
fffffc5a 
00062712 
00d69624 
00c08c80 
00bce625 
00a0118d 
00beb436 
00bbe2af 
00c4d70a 
0094aa9c 
007ff20e 
00b3c6bd 
00cb4278 
00aa54bf 
ffefc20d 
ff6fc9e4 
fff6c184 
0010a4f6 
00346690 
ffefca24 
00121a36 
ffd8dbe7 
00e38811 
0023f220 
ffc68ab3 
00e93834 
ffe83e4e 
fffe8b23 
0004f86c 
ffa6fcc2 
ffe90f0a 
00071f20 
ffe77563 
000617bd 
ffe589ca 
001913fe 
0015ea6e 
ffe08dc7 
001d29f2 
ffcccfac 
fff8f8cb 
ffcecb83 
ffbf2b11 
ffd11a31 
0004697f 
fff3209f 
fffb37e4 
ffd66108 
ffdad999 
ffe631a5 
fffd1215 
0005c943 
ffe25427 
ffe125a3 
000a8d7c 
ffe42e4e 
fff230a9 
fffc9837 
fffb2341 
00182b52 
fffd764a 
002580aa 
ffe5f5c8 
00065a02 
001c3a65 
ffe9c83f 
ffd9c3f7 
000fad1b 
0022894a 
ffd2a338 
0032c6ee 
0014831d 
ffdfe2ce 
0022e69a 
0016cda5 
ffd47402 
ffdbdf4e 
fffe35dd 
fff2a72b 
0017a760 
fffacc1a 
000e1267 
0011c9a1 
fffc259d 
ffffadf4 
000793f2 
fff03feb 
fff7f20d 
00148651 
ffe5db88 
ffe7c239 
ffed7e0c 
0036d1ad 
ffd4cc71 
001357bd 
00059bcb 
fff97168 
ffd455fb 
ffee1197 
fffc3c77 
00000000 
