00000000 
003352eb 
fff32cab 
ffcebb3e 
00008349 
00433f8a 
fff09d1a 
ffd62e3d 
00219931 
ffef9df1 
fff15e44 
fffc2942 
ffeefaee 
ffd90a28 
ffc43f27 
005f0a77 
fffecd28 
ffdc7710 
00359f4c 
00a6266f 
ffd0e69f 
ffe6b047 
ffee2cb9 
fff05a81 
fe99dbea 
fffefe48 
0006402c 
000d0502 
ffd5cfc0 
ffdba739 
fff54265 
fffff1b1 
ffdd13cd 
fffb7263 
000168c1 
ffd998ac 
ffe141eb 
fffa8912 
fff961a7 
ffe5d30b 
ffd0ccad 
ffe8298c 
ffb70db0 
0010adde 
ff395a34 
fff50e24 
fff96687 
ffe0a45f 
ff8136eb 
ffde25f2 
fffda03d 
0019f4aa 
ffe988d8 
ffe696f9 
ff370484 
ff286a91 
ffe8bda5 
ffe1a460 
0008c3c7 
ffc9c8b7 
ff5dc76a 
ff0cc5ee 
ff99863f 
ffd3e1ee 
fe7df458 
00407e1c 
fff8d1fe 
006c4a45 
ff899b5d 
002facde 
003c067d 
ffe3fd3e 
00037a03 
ffab2ca3 
ffcd9ab3 
005162e7 
0080c728 
fff2f808 
ffd3a41a 
ffd9ccb0 
ff309539 
ffe63729 
006e0c66 
fff4140f 
ff7ddaa7 
fff4c7af 
ffdae029 
ffec242e 
fff1cf4f 
fff2880d 
ffe9b4a7 
ffed1843 
ffe3f054 
ffcf0418 
00106be5 
ffe1b3b9 
ffe9d065 
ffdd45b8 
ffc75893 
ffe91263 
fff116cb 
ffe23c55 
fff80fc3 
ffe74a07 
ffec31ac 
0008bd37 
00f24b15 
ffe1c3ee 
00b1ee47 
0012431b 
ffef1714 
ffffc1b6 
00ba6320 
ffe78d94 
fff3bd35 
00da28af 
00002ea9 
fff7f4a6 
ffff0016 
ffe51e9f 
ffdc27ca 
0010b09e 
fff8851b 
ffd3ce76 
0032595c 
fff5f038 
ffee4a1b 
ffc608ff 
ffdf3af1 
ffe23f9f 
00051226 
0011778d 
fffe6836 
ffddd908 
ffb685c0 
ffcb6d9f 
fff95485 
fffc0439 
ffc483a0 
fff380de 
ffaf1854 
fffc2c37 
fff3e214 
ffe18b58 
ffec1878 
ffd22d8a 
fffbfcd8 
ffc965cf 
ffc4ca4e 
fff7808f 
ffdc5747 
00002007 
fff42a33 
fff06567 
0006a2ac 
ffde213d 
ffd92554 
001dc972 
017c16f2 
0173ea92 
010dae78 
01813288 
014639c4 
0125c25e 
01790730 
01c6269e 
01b67748 
013c7906 
014abe16 
016844ca 
ffe4aa7c 
ffb34b85 
ffd833d4 
ffe3df2e 
fff2f533 
ffe89a2c 
fff49cd7 
fff1ff0c 
00373646 
0014253d 
fffec408 
0082c131 
ffe63cae 
fffd46b4 
ffd88dba 
00589f83 
00154813 
001b8c3b 
fff41fe8 
fff63846 
ffb68789 
ffd5ae82 
000081de 
ffee5bfe 
000ae5af 
00048417 
fff88d86 
fff65823 
ffd566f0 
ffd5128c 
ffcda5b4 
ffde4255 
ffeb24f8 
fff05023 
ffd2a725 
000068c9 
fffee7e0 
fffb706d 
ffd2171e 
ffe2ab69 
fff01fb2 
ffca2b62 
ffe97d80 
ffecc1be 
ffe91cfb 
00055060 
ffcb081b 
0004ab5b 
ffef71d7 
fff1450b 
0005efb9 
001f0086 
fff3de30 
001822a3 
ffe5c67f 
ffe441a2 
ffeabd06 
ffd5efd6 
ffe39165 
ffecfe86 
fff8efd0 
ffd9f153 
ffc2f550 
ffff6336 
ffe93f2a 
ffd5640b 
fffb97c0 
ffe334c2 
fff1b9fe 
ffdae52c 
ffec2a5d 
fff0a5d2 
fff873ec 
fff8c995 
fff74c26 
ffdce308 
fff9c688 
000b7820 
fff65577 
ffdcc193 
ffe5f053 
ffc0e991 
0011954b 
0018895b 
fff9fcca 
00197947 
00000000 
