00000000 
0074fd53 
ffeb829a 
ffef10ec 
fff82b3c 
fd48f184 
fff9e501 
000c0c8c 
fe136f5e 
fffbee15 
fff33134 
fff15016 
00000cdc 
ffefa099 
fe3c54d4 
fda28234 
fff20ea1 
002a6a6b 
fd7a6688 
fdde4258 
fff2e4ca 
007202a2 
fff34af6 
ffd66ba5 
fe886902 
fff9ce63 
ffd5018a 
ffefcbff 
006e44b5 
ffe966b4 
ffd64b6c 
ffe45c96 
0033c5e4 
fff86a16 
fff6379c 
ffe390ed 
00092950 
fffeff20 
ffe5b6e3 
0000b805 
fff10544 
fff92a09 
007333ed 
fff6ac34 
00d4d002 
000e0017 
fffccfda 
ffdf5d52 
00cf7698 
fff747e2 
0015f531 
fff84cd2 
001a3b14 
ffebcb43 
01212b56 
00ebe79c 
fff181b7 
fff356f2 
fff5dc20 
ffe7e316 
0177ef2a 
01a37490 
01108eba 
00a423d5 
fe7ffee0 
005458ba 
0001bd4d 
000b5982 
003f96bf 
ffc1b6a5 
0027b335 
ffda1c81 
0011c351 
00431151 
00540bb4 
000bebb8 
ffd11f29 
000a0145 
0019d13c 
ffdf9193 
feada6d2 
fff2c915 
fe615d7c 
fe97e070 
00e444bb 
00072796 
fffa2061 
ffe818fa 
ffeddde2 
fff36f00 
ffff1691 
fff8d05a 
fff3f270 
fff68502 
ffeef31c 
000e6ed8 
ffdc21df 
fffdd022 
00183eb7 
0002f0a1 
ffc60e11 
001363e3 
001cb8cf 
ffef1d1c 
ffce46ff 
ffdead5a 
00190e61 
ffe612a2 
004cf92e 
ffeecb89 
fff9aecc 
ffe7a55c 
fff77004 
00084d77 
fff4f5a8 
ffe12092 
ffe9a7d9 
00031b46 
ffea2f1e 
0014c526 
fff01e36 
ff787b91 
fff7e008 
fffc5422 
ff30c9fa 
0009965e 
fff17af1 
fffddda2 
ffdda508 
fff989ef 
ff126096 
ff7a7ed9 
fff6587c 
ffd0ea6f 
ffe381fe 
fff944d4 
ffd79a97 
ffcf908e 
003152bd 
ffedd37f 
fff8b739 
ffe1b2bb 
ffe4e25c 
ffec17df 
ffe9d29c 
ffe8775d 
000aa809 
fff5c72f 
000ad3b3 
00032f72 
ffefb2d7 
00039c54 
ffdbbd8f 
ffe16fea 
ffda7257 
fffa5435 
ffef3a4f 
0003e171 
01b2e8bc 
018db858 
01aa6ef8 
01a7a554 
019a12cc 
01afe1ec 
01992308 
0174b9d4 
017b579c 
017ef878 
018f31ec 
018fd5f8 
0016e86b 
005726cf 
fffb948e 
ffdd4723 
ffed0d2c 
ffd6d5b0 
fff6b97e 
ffe7ad6f 
ffe3ff03 
ffe19b20 
ffe87d7f 
01010d26 
00092a8f 
fffbc09f 
ffffb8a2 
fff069a8 
ffe79938 
fffa7b62 
ffe972c7 
ffdda37a 
ffea5670 
fffb636d 
000b4a98 
ffe3d987 
000f5d3a 
ffd8c386 
000b93ac 
fff33a08 
ffff9ca9 
fffdd3ca 
fffd1614 
00180e56 
fff070c8 
002d8261 
fffc1560 
00268555 
fffae39c 
ffd6d942 
0002da17 
001607ce 
ffef2b85 
00219116 
ffe7c402 
fffa9ce2 
ffea7748 
00068018 
0001c368 
ffce7654 
ffe385ca 
ffec0efa 
fffe98f9 
000f2f46 
fff269f3 
ffe7c85c 
ffe46274 
ffcd9f90 
0018639a 
ffdc62e4 
fff4122f 
fff4c80a 
0012d31a 
ffe8b32b 
ffd6b49d 
fff9e6e0 
fff629df 
fff52c0a 
ffee64c8 
000553cc 
00164e46 
fff62089 
fff1b3d8 
00032eb2 
000f655d 
fff2d851 
ffe71833 
00158539 
fffc8210 
ffd6e987 
fffe6e6a 
fff367da 
ffd6a43f 
ffec9669 
ffd51759 
fffdf615 
fffee7cd 
ffd88852 
00000000 
