00000000 
00686303 
ffd4d020 
ffea7cf8 
00020712 
032e9898 
ffee1ccd 
0007d2eb 
0304fd4c 
0008bf5e 
ffcf96e8 
fff1ba4d 
ffdb684a 
ffe536a5 
030c46b4 
02e265a0 
fff695f9 
ffed2f27 
03c455c0 
02c009b0 
ffd09ae1 
00fa3022 
ffe6d307 
ffc96a68 
0012922a 
ffdb8f11 
ffb16f35 
ffe2d129 
ffdd8408 
ffddd634 
ffd82511 
ffefeddb 
fff63f45 
ffee776d 
ffef28d1 
ffc03c4e 
ffd0f7aa 
ffcbc407 
ffbc82f0 
ffdb38e5 
ffca1af6 
ffc72931 
0021a975 
fff96de2 
ffb0793a 
0008ae7d 
ffe8a319 
ffed6c8a 
ff7d437f 
ffd60d47 
ffc5a463 
ffd0bcec 
ffe93b70 
ffcaa9e8 
feb64708 
feb6572a 
ffe2be8d 
ffee36f6 
ffdd9040 
ffe8b51a 
ffda2e03 
ffcdea31 
ffb97b09 
ffb2f41a 
ffbf1074 
ffe8c2db 
00256315 
00b72f9e 
0017bc09 
00a18b05 
00203055 
ff585f48 
00a3369f 
0046e2b7 
ffd9318d 
008f02a7 
ffb264a7 
ffe0b558 
ffec97c4 
00130a4b 
01959fda 
fff16f87 
0170958a 
01b2e074 
fe727f90 
fff96f73 
fffb47ac 
fff02d26 
ffdf6fa8 
ffe18f54 
00000838 
ffce6e87 
ffdd381f 
ffeec755 
ffd811ee 
ffde0c10 
ffeb22b4 
ffbe05cd 
fff5713d 
fffc6269 
00144d1d 
0010a9bc 
fffb1972 
000b2059 
ffd4d459 
ffe99314 
ff8b963a 
ffef90f0 
ff85ca09 
0003028f 
ffc15ec2 
fff2afde 
ff69e0e3 
00235c7a 
ffe24566 
ff7daeb0 
ffd7594e 
ffe9e1db 
ffc92179 
fff36eb0 
ffdc7843 
ffdc004b 
fffdf634 
ffeb2996 
ffbc75ac 
fff27678 
fff83d3c 
0002fb9c 
0000d07a 
ffce4726 
ffa34ae1 
ffad00b7 
ffcbfdac 
ffbf4dbf 
ffd78b15 
000c8bf1 
ffee900a 
000f8b55 
fff7621b 
ffefcc8a 
00022d19 
ffebd45d 
ffc71f71 
ffdda344 
ffcfe0b4 
ffed2939 
000b9c57 
fffb472b 
ffe1f9d1 
ffd3c0ef 
fffbabba 
ffe55328 
ffead596 
ffd1ab5e 
ffb2b17a 
ffe474b2 
fff44662 
fff124db 
001153e0 
001bfd33 
ffe7f8d1 
001207fd 
0011a3db 
ffe957d8 
000fd4c9 
001273e3 
0018048e 
0012e2b4 
0011e166 
0027e652 
ffec2d44 
ff7556cb 
ffd4f209 
00084f8c 
fff9e6f6 
ffe7b522 
ffcd3f07 
ffe53b9f 
007a8096 
ffcdecbc 
ffee065b 
0097ba33 
00016b44 
ffc2aa1f 
fff4ddaf 
00043992 
00024309 
ffd4b12f 
0008ec76 
0008a6fc 
ffe0af12 
000569b6 
000235ab 
fff670be 
ffef21e2 
ffd58c77 
ffe35934 
0009af38 
fffa3e61 
ffd25921 
ffdcdedb 
fff70658 
fffe1497 
ffe132d3 
00040173 
0007992a 
ffef8640 
ffc7af9d 
ffd5e052 
ffecee74 
ffd1d314 
000825a7 
0006f34f 
ffc0c231 
fffde079 
0016fe40 
ffbedbe7 
ffffe0d2 
fff17e05 
ffc8a724 
ffda7dcd 
fff83762 
ffd8f010 
0000dbf3 
00025824 
000efe05 
ffde3ce7 
001e7738 
ffff9ade 
ffbee59f 
ffec9949 
ffdbe6be 
ffd2dd16 
ffdac7ae 
ffd4385e 
ffce3f02 
001ef910 
ffea8a80 
ffdd8f54 
ffd4fca2 
ffef15fe 
ffaddcb3 
ffc0afdd 
ffd27bcf 
ffe42922 
ffd8c6a5 
ffde608a 
fff7134b 
ffd3c7c8 
ffd26240 
ffef9cf5 
001304af 
ffbf7b69 
ffeb2b45 
ffd536e8 
0014b18a 
00000000 
