00000000 
ff2955d5 
0015ae81 
fff5fef7 
0021c799 
004f9ae3 
ffeb1dfe 
001612b7 
0040ba4b 
002ceed4 
000e6088 
ffe499b4 
0005aa4e 
0011bff2 
ffcc6110 
0094075f 
00067098 
ffffb04e 
00584b20 
003a16b9 
fffa5259 
fe35e7d0 
ffcb04d2 
00102c88 
fef7bc00 
ffdc6034 
fffb0e4e 
00180ab1 
fde3cad8 
ffe7f47a 
fffb9ee0 
fff4dc08 
0000054f 
00016b8c 
00280a9d 
fff50ad4 
000bb32b 
ffe5567f 
ffd8c4e6 
00062116 
fff813fa 
00153eb1 
fff449df 
ffd33324 
00052f12 
000207be 
fff884a7 
0001e94d 
ff01b9e9 
0001e17d 
ffe58863 
00171f34 
00139cad 
0011fc2e 
0142b2f0 
014eab0a 
ffff0675 
ffe9b810 
fffeeab4 
0023d9a4 
00b59661 
00f6cdc1 
00b0adce 
004d72ff 
ff449754 
fec56c7a 
fe68eeaa 
fe77d404 
fefb77bc 
fedc386a 
ff1f5af7 
ff13e745 
feffc81c 
ff038986 
ff72a9d8 
ff063b41 
ff949b57 
fff094d0 
fffe5520 
0013392b 
00085362 
0001f06e 
008a00a8 
00c20eab 
00d4080d 
001f12b0 
ffe99816 
0000ca2f 
0007631c 
fffdb9ca 
ffd8adfd 
fffa4aa6 
ffffef27 
000d7a69 
00012964 
fffddba2 
0019e2e8 
0002c552 
00034ea5 
ffd77a92 
fffacae5 
ffd70432 
0016e992 
ffd92cca 
000e9107 
ffea446b 
01e51dba 
0002af93 
017198c4 
000ec11b 
ffe42cc1 
fff2a30f 
01f16bba 
fff497b2 
0037143e 
0193d278 
002c5484 
00056830 
000edc44 
00104aed 
ffded018 
fed87d82 
0016e621 
ffec0844 
ff3444a7 
fffe6886 
000989f9 
000e7f51 
000ddfea 
0000b895 
fed93980 
ff331f5c 
00063431 
ffed9f7b 
0002dbe8 
0001521a 
0001fea4 
ffed3d4d 
000a33cd 
ffef0513 
00269d7a 
001e9f09 
001528dd 
0021f82a 
ffeea5e8 
001e80e8 
fffb2790 
00191c56 
001ecf8c 
0034e190 
001197f3 
00501bf1 
00084f48 
001ba63a 
000e4f69 
ffdc5a48 
000d4917 
000c6630 
00871c76 
0082278a 
009f78c6 
007ab264 
008ced73 
009155b4 
008a1d51 
0075533d 
005dbd68 
009c8d81 
00855960 
009a0dbf 
ffffcbb5 
00b4fc04 
0007c78f 
ffcda454 
fff8540f 
00204381 
00110f4b 
000f7a3a 
fec096d4 
fffe73ab 
fff833b9 
ff699aa9 
00216cfe 
00019368 
002f645f 
ffb37328 
0018d062 
fffb0280 
fff05998 
fff7fab6 
ffff559b 
fffad6c9 
000e4e96 
0004130c 
00090f00 
ffdd0d71 
000afd96 
000deffc 
ffffcbe2 
00119628 
000fd552 
fff3c664 
0001fd98 
00055cfc 
ffe2703a 
fff963ad 
000dc569 
000f46a6 
0016a274 
000234fc 
fff2ef65 
00054859 
00075b15 
0008b21b 
002a4405 
00137bd6 
fff76008 
ffeeb160 
fff11239 
00263404 
fff2f19e 
00022335 
00225a8d 
ffdf9398 
00169434 
ffd4dc52 
00218b20 
000f7254 
002f2415 
00408753 
00015158 
ffffff09 
00033c06 
00038f37 
00044b0a 
0007b703 
0005f3ae 
fff31489 
00065e3d 
000ff7b6 
000997f8 
00098c37 
ffed5679 
fff61043 
ffe30c97 
002a5d7d 
000eeec2 
ffe28bfe 
ffee6f7a 
ffedc366 
ffff2a1a 
fffe989f 
ffd9cc12 
001b6e9d 
000d0457 
ffee6df3 
00000000 
