00000000 
007b94d5 
0031ac1e 
000f9fb3 
fff66b48 
ff38dd3c 
000e8ca0 
000642b4 
fe8bcdfa 
0005a4ca 
000b2170 
ffeecb65 
ffe95239 
0034cefe 
ff645396 
ff7356ba 
0010062a 
ffefe6ae 
ff2e41b5 
ff95912b 
ffe7f834 
0012f50f 
ffd58608 
fff82479 
ff173568 
fffa0d00 
ffe7ebe9 
000cafcb 
001df912 
ffff8d82 
fffec9e4 
0008ea0f 
000e6506 
ffded024 
000e387e 
ffe96897 
fff369e5 
00219c2d 
ffef0a96 
00055557 
ffcf70c2 
ffd67387 
00881963 
00161e13 
00e0d9f9 
ffdd2b86 
000517f5 
ffda568a 
008b822c 
0025cabc 
00309673 
ffee09b5 
ffe976c4 
ffee62d9 
037abe30 
0382a124 
000745b7 
00005bf9 
fff052cc 
ffe5581a 
ffa23778 
ff5a607a 
ffb28f9c 
ffd7e053 
fecf690a 
0044c4fb 
0040f293 
007225e9 
ff98a25c 
0066bb92 
00342c76 
ffbf6051 
00640625 
00053c4f 
004f838f 
006a38ff 
fffb49c9 
ffc2897b 
0029949a 
fff3242d 
007198a1 
00053d27 
fffae312 
0022df73 
02afceb8 
fff9fc92 
fffc54d9 
fffe3430 
00151fa0 
ffff779f 
0020dee0 
ffebca5f 
ffed8d67 
fffe8457 
fff61d7c 
ffe09067 
0001edd3 
fff8e8f5 
00138835 
ffc74996 
001ec56b 
fffbe499 
fff3f4dd 
000ea918 
ffe3a75b 
fff0003a 
ff2746dc 
ffeaf197 
feff4b4c 
fffe6fc8 
0004d574 
000d2e14 
ff5e4691 
00288ce6 
00101dea 
ff4fe4a0 
000d7485 
fff78c1c 
fff5c5fb 
001fcf6b 
fff61d78 
00b46e17 
0031028b 
ffeda350 
00d3bdea 
00207369 
002ce8a1 
00096d0c 
ffef6deb 
ffe29249 
00f2fc68 
01028b0e 
0006e511 
fffb6fd1 
002289b4 
ffeb1063 
fff1e1ec 
0016a515 
000a4ff7 
ffff4721 
ffd62ab5 
001dda95 
0006ce3b 
fff40ce8 
00132bb3 
fff097f6 
000685f2 
000acc17 
00121a48 
ffebd713 
000f4d46 
002ac728 
ffe64119 
0018075e 
fffba02b 
ffe9baed 
0006ca66 
fff5a336 
ff6d1958 
ff6b3b41 
ff593d85 
ff70466a 
ff5ecf1f 
ff663384 
ff44bd3a 
ff483293 
ff63be0e 
ff2fff9e 
ff4e6929 
ff475026 
0002112d 
0085c5c2 
fffc408b 
001e4633 
0023b5da 
0029b5c9 
fff4f7a7 
fffc3c3c 
00098916 
0000c6f6 
fff4fa2d 
ffaf411d 
ffd7f1e3 
ffd91ac9 
000d772d 
00126d6e 
001968ff 
ffd980fd 
fffa1474 
0001391d 
ffebb86b 
000eefce 
0004fcd5 
0008673b 
ffefc29d 
0021742c 
001f31bc 
000e3de3 
fff54985 
0025fcb4 
ffe35ddf 
ffef1ae3 
fff0a6d6 
002b0395 
0016dbee 
001a52cd 
000756a4 
0015a775 
0026fc0d 
000b0e0f 
ffead692 
00051b03 
fffd9fed 
0019cd51 
ffd4acb8 
ffe66591 
0008ca3c 
000e7f19 
00208fcb 
fff00729 
000d2af9 
0004265a 
0009e736 
fffceefb 
fff8f27e 
fff6594e 
ffeb10bf 
ffeb590e 
00041c76 
fff68a34 
001cc3c3 
fff03e41 
fffcafca 
fff37256 
fffd5066 
fff57c8e 
fffcfdaf 
000363a5 
fff7214f 
0000be06 
0001c5e0 
00113393 
ffde496c 
00081069 
ffed25ed 
fffe4325 
ffe443ba 
ffd6a95c 
fff8361b 
0006d804 
fffbe0b3 
0005f6fd 
ffdf7d89 
ffff1db3 
ffe529ea 
fffb5119 
00000000 
