00000000 
011c48f0 
00095be1 
ffda200b 
0009480f 
006d3d97 
001cf505 
0027fac7 
004cffb2 
ffdf521b 
ffe8261b 
fffe3f4e 
000fdec1 
0017ff26 
ffc1fbbe 
0095edca 
fff6e921 
ffeb027c 
ff97deba 
0099a144 
fffe388e 
00c20088 
0007678e 
fff0c977 
008fbd66 
fff30951 
fffa4fec 
ffd947c6 
002b3f46 
000eae9b 
002191b8 
ffe885e2 
fffe25ec 
0031eee6 
002f590c 
fff683f6 
00086186 
ffea0f55 
001ea662 
000de55d 
0037aef0 
000ff383 
00493314 
ffe39ab7 
00078bc2 
fff4e5e8 
ffe3f8fb 
ffd44d3f 
00fd4680 
0019d1ec 
fff7e24d 
ffee1f7f 
0013c81f 
0004bf08 
ff05baea 
fed32886 
ffffd2ea 
fff1db77 
00075e1d 
0022b055 
ff3013c3 
ff0a4dc9 
ff4e722f 
ffba0693 
003261ce 
0029a734 
ffd97362 
00633d89 
00450b67 
00950641 
fff69603 
ff6ccffe 
0063c76c 
ffff42e4 
ffceb71a 
0032474a 
ffd36a55 
00203c45 
0007fd87 
0017a85c 
0087ad79 
ffeee9b3 
005c07d2 
00ae3007 
ffb352db 
0002f04c 
ffc7ff8a 
fff9907a 
000119df 
ffe90e0f 
000487f4 
002973c0 
00222abb 
000f5e7b 
fff430d4 
fff48d46 
00097bbd 
000f8f4d 
000ce7ca 
0006395a 
fff36da2 
ffff634c 
fff31f71 
fffbd283 
ffd341fc 
00106ff8 
ff9b5991 
003f69d4 
ff81b5a8 
0023601a 
fff7e7e5 
000aefe2 
ff355833 
fffb3d67 
fff0fa1c 
ff2eb32b 
fffddf12 
0018bc1b 
000a8ae5 
00167d34 
fff17e09 
ffd84ad1 
fffa5040 
fff1571d 
ff8f1d3e 
fff89282 
fff15654 
ffdabdb3 
002408ba 
ffe78447 
ffc6d94b 
fef58e52 
00059796 
fff8e712 
0001d487 
00121af1 
ffe82ad9 
ffec8b60 
0004f626 
00087e29 
fff3e49d 
ffe95f7d 
000644a9 
001fa4d4 
001a1bc0 
000283a8 
0028fe61 
ffea25b0 
fff813a0 
ffe97fbc 
000484f3 
0014c585 
0002de63 
ffdc9e35 
00199118 
fff28f16 
000ec15f 
003fd292 
ffcabc91 
0024c4e8 
fff99d57 
ffc4f35c 
000e6ac5 
ffddb9bd 
ffd56827 
ffd4d32f 
ffc08bfb 
0006a892 
fffe2193 
ffd3529b 
001406bd 
0073a009 
000352a3 
00103a6a 
fff36eb6 
0009f443 
0008fc3a 
000b99af 
009cd092 
00043609 
0000a577 
fff58b16 
0007cd3d 
0039aabf 
fff22e55 
0120c716 
003f3c80 
fffb5169 
fff7bfcd 
ffe6d648 
ffd300a2 
00075ab5 
fffc9f53 
ffe8b8d2 
00168f02 
fff075a8 
ffec31a0 
00050c02 
ffee176a 
ffe2041d 
00035976 
000e5169 
ffed3055 
ffeb11d3 
ffcee232 
0005e618 
00294239 
fff332f5 
0015930a 
ffefb58d 
fffe713d 
fff2f28e 
0003da2e 
0008f73f 
fff4736b 
0002304a 
ffecffb3 
fff55ad8 
0004fb9a 
00157d26 
fffa3f03 
000c1679 
00007fb2 
002f9b9f 
000ef9b4 
ffd60b0b 
000144a6 
ffeba95b 
ffdefa9d 
ffece453 
00152a65 
ffceb75c 
0030d1ae 
000a24fc 
003e0b0e 
ffcb169d 
002a1095 
fff084be 
ffecc9ce 
000d0bcf 
fff06c04 
00285420 
ffa96b23 
0014ba8d 
0008b313 
00254f1f 
fff7c391 
00300e7e 
00166195 
001a157b 
fffeb144 
fff27850 
fff1ad5c 
fff5e41b 
fff478da 
ffe51e37 
00000000 
