00000000 
01e675b0 
0009b280 
fff31a7d 
0004dc9d 
ff1978ff 
ffdfe242 
ffead508 
ff2facf8 
fff5e4c3 
00294904 
00078896 
00072e5d 
fff7cdf9 
fe92bb6e 
fec13e5c 
fffc7779 
fff06603 
fefd223c 
fedb61ce 
00103f47 
00b7c669 
0001a9a3 
000928c2 
0078e96e 
00069bd2 
002c4c34 
ffe3e2ff 
ffeb753a 
000448d6 
0014565c 
ffd7dadf 
fff4de37 
ffeb249e 
fffc4e95 
00136d27 
ffdabefc 
000a5160 
00030771 
fff3203c 
ffefc3c0 
fffbc74e 
01695b74 
00209ae4 
008240fc 
fff5d150 
0005b957 
fff80948 
0198ff78 
ffdb270d 
ffd300c2 
001847fb 
001b390b 
fffc203a 
021420e8 
01fe114e 
0014b05e 
fff108f8 
000461df 
ffdd788b 
0152fba4 
01139f42 
011a7160 
00deedd2 
ffc77866 
00d24c4d 
0004662a 
008f94d8 
00f6ac41 
00b29c17 
00385436 
009aff52 
0049333a 
009fc58e 
001646c9 
008f3bc4 
00f66317 
ffccb17f 
ffcd86bd 
00211226 
ff2169ce 
000b1f64 
ff382df9 
ffbe9bc9 
0168292c 
fffdc471 
fff14810 
00042433 
00158612 
0012641d 
fff71e4e 
0013276e 
fff11b45 
fff0f324 
fffe75de 
ffe76f67 
00130a15 
fff5bf0a 
ffd22df7 
0004a719 
ffe16d5b 
fffe96fe 
00206138 
ffe59915 
001278da 
0008aedc 
fee54356 
fff86b85 
fece225c 
fffe63df 
0009f163 
001229bd 
ff089221 
0002c4cc 
001f9068 
feb3563a 
001c7d5a 
fffe2dc8 
ffefd542 
ffee2543 
ffeb190d 
fdd24ef4 
ffde8ae1 
ffe391c6 
fd5262d4 
fff33d48 
0003f30c 
ffee4899 
ffe56e47 
001584fd 
fdf4cae4 
fdd64d54 
002642f0 
0001f801 
ffec39c9 
002524e2 
00325135 
fff355c0 
ffec5ca6 
fffed406 
ffcb061d 
fff760fd 
000c8e2a 
0010f428 
001330c7 
001b842c 
ffe90585 
ffdfac54 
00052fa4 
ffeade9b 
ffbfcb8c 
0003567f 
0018e128 
fff3905e 
0006963e 
ffcb2d56 
ffe0dc8a 
fff0176d 
00507d3c 
001d3108 
ffdbc2ed 
0014d6f8 
fff2f5b9 
ffe9e5ca 
0036ee63 
003f7f0b 
002d4e4d 
fffc03fe 
0006512a 
0031d895 
ffef3542 
ff6eaffa 
ffe8d6c9 
00034b73 
000950fe 
fffae5c7 
002e2907 
ffe3ba1c 
ffc91b76 
001dc3bd 
fff7bb77 
ffbc7ad8 
0025dcc7 
001203fb 
ffff3c8a 
004a7e27 
001463ea 
ffe6d213 
001d8e82 
0002934b 
fff29969 
fff3d8de 
0001cfd3 
ffd97268 
0011a67b 
00012b90 
000e1e47 
00092768 
fff8546b 
000e4e9e 
fff49d74 
fff3ba90 
ffefce52 
ffe7ad0f 
ffee7db6 
0007f217 
0041cc3e 
fff482e0 
0003d15f 
fff1d5ab 
ffff09a4 
ffe9e2fb 
ffe5690e 
fff83a34 
001c0da8 
fffab1dd 
fffe79c3 
000e4606 
fff7d306 
002ace3c 
0015bc1c 
fff9324b 
000d36c4 
0012ac59 
ffe46783 
0007485b 
001f4a7b 
001424bc 
000d0aee 
004d9e26 
fffef77f 
fff0a134 
0005dc9c 
fffb5266 
0007eb52 
fff14f50 
0013f5c1 
fff26864 
fff83ba4 
0021ef47 
ffefa4e5 
ffe28c2f 
fffbb057 
001f17e0 
0006010c 
fff8e317 
fff8786a 
ffd5bd86 
fffd3615 
0015792b 
fff36e06 
fffff49e 
ffe961a4 
ffff627f 
001fc3a6 
0003b2e1 
00000000 
