00000000 
fdb5eee8 
00148cd8 
0027117d 
ffd4e17b 
0019baea 
fff69916 
ffde6927 
00585869 
ffef83ce 
ffd951d7 
0024b321 
fff8caff 
00366a58 
00c0d10d 
ffe745bd 
fff3e74c 
fff003ad 
001ff05f 
0021f0c0 
ffe9dd07 
00b01f31 
fff71ee1 
ffecc412 
ff9ffe35 
ffffd312 
001f9429 
ffdd1455 
ffe87ee1 
002041e9 
000dfefa 
0000c749 
00055be7 
002e0dd5 
000d3c2b 
001957d4 
fff9d61a 
00150c47 
000b81ca 
0001dc2a 
fff7c47f 
fffcf776 
feac7d46 
0018b832 
fde0e9a8 
fff993ef 
ffe98894 
ffda9cfe 
fde7dc6c 
fffbb316 
ffd50bed 
fffa1d9f 
0008f421 
fffa469d 
fedcbd20 
fe97098a 
ffe46202 
00006bec 
ffeec5b9 
fff41cd9 
ff5b4cf5 
ff928887 
ff62f8d4 
ff4764c4 
fffef9c3 
005fc22a 
ffc9d512 
00861675 
fff6b8ff 
005b7ecf 
ffccf385 
ff91ba4b 
fffe7c95 
006ff71c 
00158417 
000f7fb6 
fff00109 
ffebe094 
ffe7261b 
0031ca11 
ff419556 
fff49a62 
ff5f8173 
ff6003ba 
ffa0fc7b 
00014e97 
ffe7d75f 
fff3bd41 
002a9891 
fffb1989 
001c8edd 
ffbda9c3 
00140276 
00144aa7 
ffc404ce 
000f025b 
0000c208 
00169813 
ffe6a2e8 
0018aa26 
0002c3f4 
0007b3d9 
fffc16b8 
fffc2cd3 
0010504a 
fffe4f08 
009d1292 
001870f3 
009db194 
fffb479c 
002764e7 
000181f1 
00bd507f 
0000e433 
ffdcfb6f 
00daf0d6 
ffec99e9 
00156d5b 
001daf89 
fffd747c 
001df74e 
012d0c96 
fff6f134 
ffc570aa 
0112ff10 
0049c8b5 
0019c30c 
000788a8 
ffe762a5 
ffd87990 
0101d61e 
0167e832 
003e70cd 
00076f10 
002ab95d 
0006811c 
001fe5c9 
fffde4ca 
0018e1ee 
00061bfb 
fffb0212 
0007101b 
00119d5a 
ffe5cc3d 
fff35229 
ffffe57a 
fff48452 
002b30ef 
ffdc1a5d 
001cbf95 
00012afa 
00157bf2 
ffe96391 
ffd9ff6c 
ffe9a259 
fff40ca0 
ffd69b45 
000cbf76 
004b6482 
006846c4 
0078f041 
00681c2b 
006130c7 
007f8aa4 
00645c8a 
003e877c 
003b47dd 
00440eda 
003fea22 
004a6aa8 
ffea8b3d 
016092f6 
ffe375f7 
00101628 
ffebf869 
ffeabaed 
00085741 
ffeb69a4 
fea88ad0 
fff63a60 
001d4021 
ffcbc464 
00145407 
002b33a7 
00044d85 
00491788 
000cf9cb 
00181215 
000143fd 
fff654fe 
ffd0790a 
ffe5307f 
ffe93bc3 
0008fd3c 
001592b8 
ffe3801d 
0010f753 
fff63403 
000bc559 
001d51bc 
ffe8a6c2 
00117368 
fff19986 
fffb643a 
fff8a0f2 
0002c5a8 
ffe1786f 
ffe26015 
001d9bdd 
00150cde 
000e055d 
fffe38a8 
ffea7e45 
0010695a 
00070019 
fff89964 
000c2490 
ffe1db3e 
0005a4d8 
ffeeaba0 
fffeb5bc 
ffdfe304 
fffc1b9c 
ffecd47b 
ffd9b9bd 
fff95a00 
ffd4aa0e 
0020b29a 
fff6375d 
00106ffd 
ffffe8d4 
ffd7669f 
ffe41af6 
ffe31af6 
000c1f23 
ffdf0135 
000c2c88 
fff2424f 
000654c9 
0017d706 
ffee54bc 
0001b622 
ffe07fdf 
000d5075 
ffeeeef5 
000338d3 
000c9ca5 
00123661 
fff24c8a 
ffd6f4ec 
0020759a 
00024c6f 
0003c75a 
ffedfb80 
001974eb 
ffd9980a 
00000000 
