00000000 
ffda94ec 
ffe75b39 
ffdf05e1 
ffde23fc 
00f275c1 
fff06082 
ffd22ed7 
0089445a 
0004a861 
ffe7586c 
fff32105 
000b4ad8 
0009d7b2 
00c8516a 
004099c0 
ffc9021e 
fff54fa7 
00906299 
0069b82d 
00062da6 
0018530d 
00186272 
ffd2f93e 
002a1597 
ffe5ef1e 
ffe83a87 
00113c22 
ffd89dc6 
fff5dc6b 
ffe3e0fd 
ffff7847 
fff832a4 
000d70dd 
ffd96783 
ffe0dd1f 
ffdb8e9e 
ffcddae4 
fff0cc8d 
ffe6125f 
ffd39f5d 
000f23fd 
fff3f977 
ffc4bca5 
006babef 
ffe789f8 
ffe849ba 
ffed52ef 
00509d26 
fff184ad 
ffedc543 
ffed402e 
0000d42e 
fff11424 
036fdd14 
037d2e24 
0001d9bf 
ffd7ec88 
ffe706a3 
ffd0e731 
fef9fcc8 
ff4d2d5d 
ff0f86ed 
ffc01df3 
0027bdc9 
001a4179 
ffbb2778 
ffdea1c9 
ffb42305 
00022eb7 
ffa900ac 
ffbddaf7 
ffc51991 
ffd4fcf4 
003c3121 
ffe7f34e 
ffe23944 
000abf23 
fff691e6 
ffda25f8 
0001069d 
000ea42b 
003f7d18 
00580bdd 
0254d828 
ffe84e98 
0017af5b 
ffd8d585 
ffe43a4c 
ffd5b66c 
fffe18ab 
ffd2d03b 
fffa3538 
fff707a5 
00036b38 
ffd09ff9 
ffa736ef 
ffe1937e 
ffe7e381 
00253e30 
ffeee387 
ffeadfc5 
ffd5d52f 
ffdf0c8f 
ffd325b6 
ffe8d411 
fee96df6 
000a577a 
febaa638 
ffeaf9f3 
fff91f62 
ffddafb5 
fed4e3f8 
ffd4b635 
ffe431f2 
fefdd16a 
ffa6008f 
000ecef6 
ffe57360 
fff26c4a 
ffec7851 
00bcd49a 
ffd9d72c 
ffdcc457 
008edf7a 
00007cfe 
00044df7 
ffe9973c 
ffd7512d 
ffd94f38 
007c31cc 
00e3697f 
0001cec9 
000451e0 
ffe222a6 
ffe46cf9 
ffd6d4d2 
00142549 
ffe1682e 
ffeef6b7 
fff8419f 
fff56ad8 
fff99a54 
0000a862 
ffd4b5b8 
ffe2ad51 
ffe591a6 
ffc6d91f 
ffd6be2f 
00007bac 
ffe9c674 
ffdf3b44 
fff5ab8e 
ffd18338 
fff4ea66 
ffefba3a 
fffbf377 
ffc2365b 
003f9742 
001742f6 
ffea75a3 
000c39b3 
0001dc12 
0007386a 
00198f3c 
005f4305 
004565da 
003da824 
002b9620 
002d5654 
ffc89826 
00f71244 
ffca2044 
ffce146b 
ffc4c510 
ffecd59d 
fff9e3b3 
ffafba90 
003d1ff6 
ffe42d00 
fff92e1a 
ffee7c1b 
ffbd1c9c 
00052f74 
fff0f59d 
015878ca 
fffda3f6 
ffd7772a 
000a83ba 
fff37547 
000010ca 
fffdf923 
ffe92ea1 
fff7b739 
fffa00f0 
ffdd63d2 
000476e4 
fff1d939 
ffc22429 
fff375e5 
ffe8523f 
ffdd67d0 
fff38bc5 
ffd5b0f1 
ffec6ce4 
0003e5e2 
0008a161 
000d2366 
000b761f 
fff837fb 
fff50a26 
ffe025a5 
ffddc71f 
ffeb1711 
ffe5a9eb 
ffde0955 
fffcdc7a 
fffbc381 
ffd66e2b 
ffdb3715 
ffecca56 
ffdafe66 
00138d57 
ffe645f7 
ffe77d81 
ffffbfc3 
ffc69c63 
000b7bb0 
fff65378 
0006c6d6 
000394b7 
00157751 
000c1b5b 
fff67c87 
fff2e8bd 
ffdf6423 
ffdc4dd1 
0004461e 
fff134a1 
ffed0cb4 
fffa0790 
000abb22 
0003b1c5 
ffd8dd88 
ffd4506f 
ffd56363 
ffd91398 
ffe99524 
fffe4edd 
ffda47a0 
ffe9c45c 
ffc1f7f2 
fffc9c7e 
ffe13fe9 
000e74c9 
ffe6eea1 
00000000 
