00000000 
00ac25bf 
000340b8 
ffefaf8b 
ffe22d09 
0034d8db 
00146020 
0008a943 
fff7ae4e 
0003c089 
fff23d0c 
ffed1f6b 
fffff823 
ffe99b70 
0066cb6e 
002dd4d6 
001a01d4 
ffeba85e 
00119c7a 
ff5aac48 
0018223f 
ff52fc58 
00057c74 
0017c552 
fe6a9a6a 
fff78ed1 
00171c2b 
000abd23 
feb5a174 
fffb749f 
ffee659e 
0000ff68 
ffdde23a 
ffe223ec 
ffda3c55 
00032e75 
fff2ae01 
00110922 
fffcd414 
ffffe6df 
00099733 
ffccbe76 
ffe4d92e 
0017ed6a 
008f49ac 
0020ca13 
0022de5c 
ffed5247 
0074befe 
001ad9cd 
ffd04c5b 
ffe15f8a 
000de658 
003dc520 
fecd3982 
fec43b6c 
00065ec6 
00017702 
ffe24238 
fffcb2e0 
ff6c5258 
ffb874c5 
ff7a4986 
ff8c8a88 
fee5986a 
ff63381a 
ff239682 
ff668b9e 
ff6071ac 
ffb54d7a 
ff93c95b 
fe3edc6e 
ffe626f7 
ff055df0 
ff33388b 
ffd99751 
ff01c68d 
002b4099 
002bfe53 
ffcb9925 
ffed2b21 
000befdd 
ff5fb702 
ffe3f561 
ff729111 
0002de71 
002ef8c5 
ffc831dc 
0025d798 
fffbfdb7 
0011d9ab 
000392b4 
002093ad 
000b457b 
001ec5e9 
ffe536fb 
002e0eef 
00027752 
001e85a3 
00201796 
0005db90 
0011684d 
ffe98b86 
001f8262 
ffee9bb6 
0009db6a 
ffa864e3 
0000f5e2 
ff614b65 
00077dea 
001df7a2 
002016e5 
ff63c54b 
00109035 
001187d1 
ff737410 
ffdea3a5 
fff700b7 
0011d537 
001504bf 
ffedbf8f 
00087508 
0011fdc1 
ffd40b02 
fffd1891 
fff9d897 
000609ea 
0001c7f4 
003eb375 
000254c5 
ffa76fcb 
ffcf7192 
0002ae14 
ffeb5149 
fff958a5 
0008e2ba 
ffee91b9 
000428b6 
fff33e53 
ffcada81 
ffe122ce 
001f82d7 
0001ea3f 
000e8593 
fff3b1f1 
ffe35b05 
ffe2adeb 
0007f41c 
000cf7c3 
fffff91f 
00089716 
00066147 
ffe80ea3 
0004fee2 
00119ba4 
ffffe811 
001669be 
ffff6bb0 
01739eba 
01822228 
01cb1f0c 
01905eee 
01b14ff2 
01c4d05a 
016fafca 
01120e04 
013222c4 
0172d26a 
0185142a 
01661496 
000aa665 
ff9f2170 
0005d6d2 
000cd522 
000f921e 
00048a51 
fffe7d60 
00086bcc 
003e43f3 
fffe9f0e 
00011391 
ffb3f888 
00261045 
fff0131d 
001555a6 
008b325f 
000aa56b 
000989db 
ffe7b827 
00113e91 
fff32f69 
fff7e283 
fff2f0ae 
ffea5d3b 
0007f0f7 
0002507a 
ffea66af 
000724db 
001dd982 
000dd74e 
001130f3 
ffe480ef 
fff9db61 
000a2272 
001241da 
ffc9e9ba 
fffe9755 
00040046 
002fb862 
fff4ea4b 
fff11a4f 
fff94786 
0006ec42 
ffe529f4 
ffebc1a7 
fffc9733 
0024401a 
ffd32569 
fffa0cb5 
fff022e7 
ffde7087 
fff9a96c 
000f17d3 
000c931b 
000e266e 
001fb15b 
0000d16a 
fffab0f0 
000d8ced 
00021c9d 
ffe45324 
001917f9 
000b811f 
ffeab718 
ffda5309 
000b792d 
002ac01c 
001059db 
0010fd65 
000a7dfc 
001c5754 
fff24d2c 
ffde94a3 
ffef75f1 
ffd60bfe 
000645e6 
fff23a6a 
002c5b0c 
0014af25 
0006bab9 
00067b64 
0017f8e6 
003005bc 
0010f4a0 
fffa80f6 
fffedcf4 
00000000 
