00000000 
0063e43b 
000147f5 
0005e409 
fff846c4 
ff3a16b2 
ffe2a98e 
00036e18 
ff64cd16 
fffca438 
0012203e 
ffead4f7 
001d9705 
ffdf2127 
feb89a7e 
fe306e0c 
ffef05a3 
fff9756c 
fe9d71f4 
fedb7b38 
0000c97a 
00f614c1 
002a5bd3 
0018f593 
0120b9f8 
ffed3a73 
000d0030 
001934ba 
00390037 
ffe725ad 
fff9a8ce 
000898da 
000e13a8 
fff940ed 
fffbf53f 
0008feb2 
ffec5377 
000b773b 
fff538bf 
00065a9a 
001feec7 
ffeb8634 
00e0d731 
fffed2d8 
0108c700 
003fc6c6 
001b9813 
fffc5512 
008e83ce 
fffe7a29 
fffeea57 
0002e6f6 
001d8b36 
ffeb7692 
00d96b8c 
00a4bdfd 
fff005fb 
fff28dda 
00018e8a 
000b0a0b 
feeebc36 
fe8dfa54 
ff00b17b 
ff515b82 
005f7168 
fffe7044 
001e21d2 
00d32870 
0082961b 
00e949c9 
00384377 
fffd242c 
00acb871 
00064ae9 
ffbc4b91 
0091cb66 
0014be02 
00235940 
002c480c 
fff8de5e 
ff39ae6e 
0009d065 
ff061a45 
feaa47a6 
008147f4 
0005ab6f 
0011fd2e 
fff8e740 
0023a01b 
000edb96 
0009a909 
0003e7bd 
00132dbd 
0021cf1c 
000036a2 
ffff4421 
00267e91 
ffc6f2f6 
002b1b5d 
002c44f9 
000194ba 
ffe38d00 
fffb2367 
00044245 
001465be 
0021a056 
01737e78 
fffb4d17 
010d390a 
001659f1 
000d4ab3 
0029527c 
0153d2d0 
0021004e 
00083f83 
0116af40 
0020204f 
000a6ef6 
ffefa7db 
ffde5b8d 
fff11147 
00c0d167 
000866d5 
000b75f8 
011acaf4 
00209be9 
fff5ca12 
fff98911 
0017b8a6 
fff983b7 
00f0fbbe 
01051f58 
ffed69be 
ffdab2ef 
fffe0a16 
fff7392a 
fff080c8 
000f5e2f 
00011dc3 
fffe91f8 
0000b3c1 
00068caf 
ffe59a66 
fff297a6 
0000e73d 
fff2f256 
fff9447c 
fff94047 
00114c92 
ffe7346f 
00170bdf 
0034b42c 
fffd7486 
ffeff386 
002aea1b 
ffeedc8b 
ffff8ca0 
001ffe7a 
ff344c5f 
ff69da06 
ff110454 
ff7cf603 
ff7ef278 
ff1998c9 
ff6647d7 
ff7bfb19 
ff9372ac 
ff0ca561 
ff337cc4 
ff24bb97 
003b3e93 
003c0575 
fffa3448 
0019bd14 
000127f5 
fffd9a4f 
fffea0fc 
001e3b81 
00955e62 
001f9a1d 
ffe5f87a 
00536109 
fffd23c0 
0017da73 
fffc28b1 
00a4758f 
001a6632 
0016d70c 
ffd21dfd 
0007bdaa 
fff40fbe 
ffd79ce7 
000a8781 
fffe831e 
ffdb324e 
00187c9f 
fff7e29f 
ffffd9e6 
fff54ccc 
ffd0644f 
000fe43e 
00093145 
0007e713 
00071f0b 
00051602 
ffda9b1e 
001c5ae8 
001fd333 
ffff77b5 
0021096d 
0003759a 
0009f099 
000c1274 
fffac4ae 
ffefd79a 
0015131b 
ffec57cd 
ffd6cbb8 
0000df98 
000049fc 
fff3692a 
ffe940bc 
000cc135 
ffe031f1 
002278de 
fff1db50 
00061ce2 
000c293b 
0011b8e6 
003ba89c 
ffdc7a3c 
ffedf300 
ffee3d02 
ffeeb3f2 
fff9a09c 
00039e04 
00069a1b 
fff735eb 
0002956c 
00095bbf 
001a511a 
0032ba3e 
ffed5aa3 
ffe7c169 
000b00ed 
ffeb5943 
ffd619cc 
0003500c 
000f4c16 
00109ca4 
0004f217 
00014665 
fff05bb4 
ffe9c34e 
001baa78 
ffd91422 
00000000 
