00000000 
ffa88d73 
ffe7dc38 
0008b45d 
000d514d 
ffb8a326 
fff98610 
000373b7 
ff8d97b9 
fff751d7 
ffd4cc86 
fff6706b 
ffe402c1 
00135347 
fe7af518 
fe81408a 
00007a14 
fffd83f8 
ff99a6a1 
ff5c1104 
000592fa 
0034d3fd 
001365fa 
000ab5f4 
ff877b83 
ffff952d 
00209b4e 
ffe5b2aa 
ff9ba0da 
00213639 
fffcc35a 
fffe9e75 
00004564 
000edbed 
ffdc7ad6 
fff80a0b 
00063d75 
ffdbb1be 
000eb75f 
ffff9bf5 
00123cc9 
001d8f40 
ffbe7574 
fff643b7 
ff4cd255 
ffc8d4a3 
0016cafd 
fff2f62a 
ffb70883 
ffdd4501 
fff8288c 
ffda7cb1 
ffce2d67 
0023827b 
01148692 
010f63aa 
ffe24610 
fffa94b4 
fff8b126 
000d05bc 
ffc78077 
0029a24a 
ffcc0306 
ff73143e 
ffcee0b5 
ff75bf89 
ff668667 
ffe2ecc9 
ffe7dfe4 
0011ff1a 
ffab4700 
ff83def9 
ffc2b898 
ffe800ae 
ff7c2323 
ff9c1398 
ffd75ef0 
ffdad64b 
fff27ba1 
0016be8f 
ff194384 
000d98ac 
ffb79424 
ffb3d1ca 
00e74357 
ffe11d26 
fffb2f11 
0001b2af 
ffea8f11 
ffecda5f 
0000b1ee 
ffea6937 
0010db46 
ffd79840 
00045745 
00068907 
ffcca6e2 
00241a9c 
ffea093c 
ffd27112 
ffe61229 
ffed33bf 
ffef326a 
fffde5c4 
fffcc5ee 
ffe58335 
00456149 
ffd53747 
006e0e83 
fffc1446 
fffb635c 
ffed0f5a 
0099f832 
fff58432 
0007227e 
004c08c8 
ffdaafcd 
ffcdac30 
000e0e63 
000124c4 
000cb399 
013b6eb2 
0008c297 
001b8909 
015e688e 
000c103d 
000471b3 
ffe43fd6 
00066cef 
fffa0044 
013f0630 
0122731c 
fff1c791 
fffdadfc 
ffe07247 
00016d22 
fffa094f 
fff77333 
000c3719 
fff32da7 
fffd13d4 
ffe97d83 
fffb62d3 
ffdee80d 
000e1097 
00133ff8 
fff012e4 
ffed4dd8 
fff7988d 
ffea6019 
ffe7fbd6 
ffd9122b 
ffdf169a 
fffe58d1 
fff643db 
ffea5365 
000a67c2 
00086d5b 
00afe388 
00b39289 
00d302a7 
009b1f15 
00a0403e 
00f8fb36 
0099fea7 
007ca0f3 
008a82d7 
00ac4ad4 
00b831da 
00b12947 
0003ba1b 
ff00def9 
0014eefd 
000dd292 
ffd8cab1 
ffed15e7 
ffe00df5 
fff66e1a 
0015f600 
00074fab 
0014f51a 
fff8512c 
00091076 
fff661b0 
fff2477f 
00aeaad3 
ffdbfe77 
000f817d 
fff75393 
0014fe94 
00147b3b 
0014837c 
0001fb9c 
00136912 
ffd32d60 
0009ec82 
0015084a 
0017dcfc 
ffdbbbe1 
000d5ded 
fff9796a 
0015a60d 
001004d1 
00057bbc 
00105fb6 
ffeb6b44 
ffd4888d 
fff62e1b 
ffe860c2 
fff3c341 
0015ce60 
000a8d32 
000e3cf0 
ffeb83a5 
fffdb2f6 
0009dedd 
ffe63a83 
00390da9 
0002229f 
fff1f6d0 
fff67817 
ffe74972 
00007634 
fff66627 
fff5b055 
00128e5e 
000d225f 
fff89419 
fffb2afa 
ffeb0407 
fff2f5b6 
ffe08d47 
fff98947 
000ef50e 
ffda84f8 
ffdead98 
fffadc63 
00111b5e 
ffeed143 
00173885 
ffdb544d 
fff346ee 
ffe69af6 
ffe9b337 
0002f67e 
0008c766 
00294abe 
ffeae142 
00028d9d 
fffdff46 
ffef6975 
0037ae03 
000741cc 
fffc6052 
ffd5c5cd 
fff6e460 
00000000 
