00000000 
005d3088 
ffd9f589 
0006b62f 
ffce2cab 
01273b34 
fffae821 
ffb0c24f 
00ebe2b9 
ffda638a 
00041f5b 
000ccbc2 
000129ce 
fffd5eaa 
00342f77 
00850f9b 
fff50f3b 
001c7960 
004807cb 
00802fe6 
0008fbb1 
ff97ca80 
ffe59e36 
00091c1d 
00a77d06 
ff99a5f1 
ffbf25b6 
ffe36e65 
00da375b 
fff264ed 
0007e585 
0004d15a 
0010091a 
000db0ce 
ffe03ac1 
001a7e43 
000f402f 
ffe9165f 
ffec843c 
ffe77232 
ffdf55dc 
ffda0c89 
014bb14c 
ffec9076 
0017739e 
0007b70c 
ffe8ccf1 
00051815 
00f24a77 
001ffc9a 
000380c4 
fffe57fe 
0000aae2 
ffffe536 
01228ee6 
012559c4 
ffccb9f7 
ffd2cd50 
ffe91858 
ffde2bf0 
ff99070b 
ffeabce5 
ffa41699 
ff5ed5d2 
011da010 
ffcfa470 
00b4bf08 
ff9e9d89 
ff30ae69 
ff7fbe09 
ffcee438 
00bbef54 
ff5dd394 
002c11b0 
ffde9b28 
ff6b44a3 
ff9afdd2 
ffe2a6e5 
fff8fb23 
ffec045d 
fff83508 
ffb6107b 
ffb26b12 
0043628b 
011b308a 
fff9bc6f 
fff38d49 
fff5e180 
ffd26d9a 
fff9938d 
fffb9c1f 
ffee5fbe 
ffdcf047 
ffd274b5 
fff9e49b 
ffc55558 
fffdcb2b 
ffdc6974 
ffca8e2f 
000636f4 
ffd09f87 
ffe52bbd 
ffd81f86 
ffdaa5e4 
ffe05086 
ffdf9804 
015f7496 
ffd10f51 
0159dc98 
001002f9 
fffc5752 
fff8311b 
015763a2 
0004ce11 
ffcd0f34 
01576ace 
002553b6 
ffe8ce6a 
001b65d8 
ffd6a90d 
0007e878 
fff4e6a6 
0027bad6 
ffe647fd 
ffb11061 
ffe90245 
ffcb8634 
000bd81c 
ffeb586e 
ffe722b5 
ffd209f9 
ff71836e 
0004ec6d 
ffdd6809 
ffcd3790 
ffe17cb5 
0009ff72 
ffff5513 
ffeb18e1 
ffe6bb3a 
ffda797d 
fff3beed 
ffe20d56 
ffdb5629 
0002ac05 
ffd2ff29 
000286d3 
00054ad5 
ffe2531d 
ffdfd3e8 
0015367e 
0012f558 
ffe5c580 
ffe012a8 
0002b11c 
ffed7dc0 
ffe58476 
0004ea70 
00198a63 
000764a0 
0034fd7a 
002c7691 
0021c7c9 
003d7f19 
002a6f6e 
ffe51078 
ffe79856 
00150577 
0018ea5d 
001f7584 
ffd6c832 
ff84ad2f 
ffdad5f8 
ffeb373d 
ffe013a7 
ffcf7bdf 
ffe2fd2c 
ffcafae5 
ff817a13 
ffdc5339 
fffa2bbe 
ff7bf1d9 
fff66cfd 
0005244c 
fff7ca20 
0019d5d9 
ffd66ba0 
ffd5c049 
ffe7049c 
0011934e 
ffe59eba 
fff7dc46 
ffd9a4e2 
ffd0387d 
ffeb54e5 
ffe32e6d 
fff22d9f 
0005687f 
ffcdb072 
000c6978 
ffd5a2dc 
ffffc539 
fff85c43 
002436ae 
fff50c36 
fff6704a 
ffe7121d 
ffcc9c6e 
0000816d 
ffe086df 
ffe52c93 
0000e3b3 
0005a2c7 
000c0dc3 
0002aac3 
ffe238bc 
0012c5ca 
ffe6937e 
ffd9f951 
ffd7b6a0 
fff8c3ff 
fff6f749 
fff7c663 
ffefaffa 
ffcabba7 
ffcd5a84 
fff6ead7 
ffefa134 
ffd33ab3 
ffe86c44 
0001cfe9 
ffec2825 
ffff8583 
ffcfdb00 
fffacdd4 
ffedc6a3 
001f4b41 
fffa8fe6 
ffecbf36 
00034a30 
fff246e9 
0006c267 
fff012d3 
ffce355a 
ffee3221 
fff82daa 
fff652a5 
000c527c 
fff4c482 
0007ad5d 
fffea9c2 
ffe7781a 
ffdcd211 
ffe7f423 
0006e914 
fff3024d 
00000000 
