00000000 
ffb6c98d 
000ab5fa 
000a4262 
000c8b55 
0063936a 
000fe381 
ffe91200 
ffdd88db 
00197f45 
00236055 
fff2bcae 
fffe38b5 
fffe6e76 
ff7f0f28 
ff81b51a 
0024e4fa 
002172be 
000884cf 
ffcdc121 
0011f7c8 
ffe41253 
001cc538 
000af792 
fe2d7d02 
ffe21154 
ffd98b46 
fff3b925 
fee89b2e 
00043e18 
ffedbe6d 
000ee1c1 
ffffa9a6 
fffe0c9b 
ffef0823 
00158e3e 
ffe2d564 
001d5bf9 
0013bd05 
fff91878 
ffe64e67 
003f8b02 
ffdcc100 
00130b09 
009f0b15 
fffbe869 
001ea89e 
00084cce 
0068b18e 
000084e5 
001eecc6 
001c0bed 
0001211d 
ffe790ae 
ffb334eb 
ffffc182 
0001e25a 
fff1c3ea 
000833ba 
ffee74c0 
00cb70e0 
ffe780a3 
00b8abce 
00352902 
fdc275d4 
ffd6b9a1 
ff62a9d1 
0079a073 
003b6407 
0035099e 
001e16ab 
ffc27895 
006c4e57 
00285fe2 
00162007 
0019cca5 
fffd6096 
fffd9216 
0012609e 
ffeef6dc 
ffb93335 
000a8f85 
ffe782bd 
00fdbd3b 
ffb682e2 
001991b7 
001671db 
00018527 
ffbc6d52 
0005c196 
fffd18d7 
00050991 
fffec491 
ffe51127 
ffeb7667 
ffe82521 
000a6695 
fffc5474 
fff07204 
000303ec 
ffe0a667 
fffc4bc1 
0000235e 
000c09cf 
fff43816 
002d2fdb 
00d6a823 
001e7f88 
00b1bfef 
ffe03387 
00181368 
00034e9b 
00bdefd4 
00159209 
fffdabd7 
00f26548 
001cda46 
fffeabea 
000e7889 
ffe2b676 
ffe89b4c 
ffda267a 
003a3859 
0005320d 
ff97561b 
ffe9209a 
0025847a 
fff9b11e 
0026d57d 
001cf3f6 
ff7436eb 
ffdbcc77 
000bfa2e 
ffeb2066 
0023361e 
ffe582cf 
001e3319 
ffc332ee 
ffdcb5fc 
fff21c1c 
ffe0b12e 
ffc22c5d 
00059885 
fff561c9 
001cb6ab 
001e6936 
00105856 
ffd6d7eb 
fff3fc64 
fff67bd8 
ffffac45 
00206769 
001082ce 
001fc7fa 
000360d1 
002ea62a 
00190d7d 
ffe7d830 
ff93641f 
ffb5aaeb 
ffe974ce 
ffbdcf9e 
ffcb656e 
fff423f6 
ffa4a854 
ff6b2d66 
ff6a6094 
ffa0981b 
ffa1f2e6 
ff7b6394 
002101de 
002329d5 
00074d08 
002aeb53 
ffe2a831 
000f7b8d 
ffd5ff82 
fffa0728 
00211cad 
ffef7ab5 
000f4009 
01916dec 
0011aaa4 
ffd76147 
ffef429c 
0093e605 
ffbda720 
0003abe2 
000923eb 
00179b45 
fff850b1 
fff7a7f9 
00037211 
fffcf88e 
0041e5ec 
ffe653ad 
fff56cbc 
000f2848 
00106900 
001c2575 
fffc5ee2 
002c074c 
fff1eae4 
00177736 
ffd1cc97 
ffe51f61 
fff7c28f 
ffffc666 
000e5f36 
0018f13b 
000ebf7b 
ffff1868 
000a6dee 
001070ea 
fff156d3 
fff42d43 
0004e265 
ffe49d2a 
fff0db47 
ffed1ba8 
fff6cd3e 
ffee6e6a 
002273e3 
0002c32d 
fff46836 
fff96a2c 
ffffba48 
fff6d272 
ffedcf28 
fff8ad73 
001848ff 
0013203e 
000ba285 
fff5e825 
001a6d1e 
000d6030 
ffec713b 
0023fbe8 
0012beac 
00052f62 
fffca803 
001ce325 
001cb26e 
ffe2b572 
ffec6363 
0016bd90 
0014744a 
001d4e30 
0004557a 
fff5f4ed 
00207e74 
0029260a 
fff51913 
0028882d 
0017ea6d 
ffe7ce45 
