002207cf 
fff599dc 
002472fb 
00165fd7 
fff102f5 
0003c391 
ffefa3fc 
00074e4c 
ffce35dc 
000772d8 
ffc7b7e5 
fffe83a9 
001f37a4 
fff17ba0 
ffeafff2 
fffe2a52 
ffe4b016 
00111365 
00042128 
001a4e1c 
00093071 
000ac27a 
000eeb64 
ffed6600 
fffbecf7 
fff4415b 
000e4fdf 
fffb11c4 
fffa96ba 
fff73edb 
fff1c049 
000ea0bb 
00031ec7 
