000c7d88 
ffedb76b 
fff7a5c6 
00051b11 
003d2689 
ffde7652 
fff3bc2c 
fffaef97 
00228cc7 
00088689 
ffd53a1d 
00168c41 
fffe4e50 
0000d6c9 
ffe67703 
00156cf8 
001904f4 
00103daf 
00157067 
ffe3429c 
001f4717 
0022a7b2 
ffda5675 
00029d8c 
fff03461 
000f21e9 
fff375db 
ffed9090 
0004c447 
ffc607bf 
0002d4c8 
0003ca30 
002b2f65 
