000402f7 
0011b52f 
ffe1646b 
ffe74b0d 
fff3e3e6 
ffe8d74c 
ffeef7ec 
fff0da8c 
fff8e5cf 
0003093a 
00042fb5 
0012a0d6 
0020b085 
fff324c0 
fff41ef6 
000e26ec 
0001935e 
001834b5 
00092e7d 
ffdd5c88 
ffda08a0 
fffb0c30 
00103a3e 
ffd9c861 
002c2a8c 
00135347 
ffd429d2 
fff7118d 
ffe7c24f 
ffeafdab 
001c56bb 
00305d76 
002207cf 
