000761c4 
0009c6ec 
001dd750 
ffe2c9a8 
0004d0a1 
ffe999b1 
fff62dcd 
00185bf4 
ffec86a3 
0038cc38 
ffce49c9 
00093313 
0023d413 
00042d74 
00092329 
002e6045 
ffdf98d5 
ffdbcd6c 
000247fd 
ffe6dd04 
0016e517 
fffcd59b 
fff83258 
ffe7353f 
0024c7d0 
00150396 
ffe94795 
001f5612 
000fb1b9 
fff987ba 
fffc3bc6 
fffe0345 
00106e47 
