002b2f65 
00081f06 
ffe5bbc0 
0007e526 
0038b5e4 
ffdf42af 
ffed510f 
0030d28a 
ffe2873e 
fff00acf 
002e2c39 
001c6d43 
fff73d53 
0009fcf6 
000f641e 
001c031b 
fffbb0bf 
ffe99a17 
000bc361 
fff8b1ac 
fff9f31c 
0017c1ff 
ffdb6a1c 
00198c3b 
ffd7098e 
0000a1f5 
fff02e5f 
0016f725 
0022c9b0 
001914d3 
fff673c7 
ffcec429 
fff9a533 
