fff5a029 
000c723d 
ffe85fec 
0003c349 
00028b72 
fffff40c 
00303539 
003ad9cc 
ffca553b 
ffea3fd9 
ffefa235 
ffe12511 
001fbc86 
ffe4bcdc 
000cf9e3 
ffd51534 
0004c4d1 
fff121a8 
0005d0d8 
ffcad7b6 
ffec3624 
0006788a 
ffce1700 
0000fd5d 
00333df2 
ffe762d0 
001735f1 
0005be0f 
fff037ef 
ffcc4e73 
ffea1c61 
ffe520ec 
ffed5fa7 
